node {
  name: "dense_input"
  op: "Placeholder"
  attr {
    key: "dtype"
    value {
      type: DT_FLOAT
    }
  }
  attr {
    key: "shape"
    value {
      shape {
        dim {
          size: -1
        }
        dim {
          size: 2
        }
      }
    }
  }
}
node {
  name: "dense/kernel"
  op: "Const"
  attr {
    key: "dtype"
    value {
      type: DT_FLOAT
    }
  }
  attr {
    key: "value"
    value {
      tensor {
        dtype: DT_FLOAT
        tensor_shape {
          dim {
            size: 2
          }
          dim {
            size: 64
          }
        }
        tensor_content: "\314Lg\276\305\221\024<\377\360\225\276\377\0233\276!\354\n\276\236\240^>\004n\223>xwP\276\304)V\275/x\210>\360]\316\274\364px\276\274Ts\276%\257\211>[\002W\276/\257\222>\365\346\205>\232\207>\276|+\266>\030\307\265=c\251\213\276\374k]\276\333<w>>\353\007>\232\213v>\301F\211>3\322\n\276\177B\207\276\177\354\350\274\215QW\276~`\370=\020~z>/\313\306=\350&e=\371\275<\275\\\367V\275\205\372\\\2739\206D\275\205{K\276\307T\203\276&q\315\275\032\361\241>\347A\202\276\212\205)\276\353\337\320\275\260\246\276\274\000\257\217\276\027@H\2762\213\213>\372&\225> \241\205>\312\023\344\275\207\306\201\2768\347\026>F\244;>vml\276\236sv>\314(\201\276\357ST>\255i\221\276]\337\310\275X\324?\275;\254\227\275]\224\205>\221h\216\276#(\214>\014\330\225>E\273\207>.M\207\276\260\231\350=G\225\242>W\331)>\010\251\004\275Jvv\276\224q\360\275\275\337\031>\032\312\226=\022g\211\276\345\372\\>\002+\3678\352\303\202\276\027I\224\276\240\224\373\274$(\227>\203\326\204\276\024\266s>\266\225\222\275\326\r\223\275\177w6>\304\256\025\276\212g\301=-{\210>\317I\231>#\366\316=\202R\366\275\376ib>\260\332\354<ko\002>?\231\261>\264Z\201>kM\253>\234\314\224=\013\203S>\246\342\202>z;\361\275\027\235;>\371+\230\276\201\307*>\211#\321=@\024B\275A9a>\317A\223=Z\250\223\275\023\204\252>\264\364\357=\267\217\222>\302\nl\276&\240\351\275_r\202=\360\020B\275\001\026\376\275\300AU\274\317\201Z\276\327T\017\276\371\251\211>\367k\032\276\265\311\212>\362\001\215\276"
      }
    }
  }
}
node {
  name: "dense/bias"
  op: "Const"
  attr {
    key: "dtype"
    value {
      type: DT_FLOAT
    }
  }
  attr {
    key: "value"
    value {
      tensor {
        dtype: DT_FLOAT
        tensor_shape {
          dim {
            size: 64
          }
        }
        tensor_content: "\000\000\000\000\025\203\024\274\250\273\240\267\257\200Y\270\000\000\000\0005\305d=z\006\247=\222n+<\000\000\000\000\215?U6\000\000\000\000\316\200\223\267-\355==\231\222\027\267\212a\2017\273\364\300=\270\247t\266\000\000\000\000\014M\243<\252\336\033=\000\000\000\000=\005\2306\330\307]=/\201\277=b)\267=\032\325\324\267\365\304\317\267I4 \270\006\260\2236%\3710=:\360\215\267\000\350\321\273\033n\301=\2318Y=\222\236\247=\325\037\312=\256\215*=\237\346\275=\207\363O\270]aS=\000\000\000\000X~k<\000\000\000\000xP\305\265\001\2457\271\000\000\000\000\0228\362<\363wh<lQ\245=S\222\t=!)\341\267m$\033=\000\000\000\000\\\202N\274\371\327 \275\000\000\000\000\241\014\200<\000\000\000\000\211\222_;\000\000\000\000\032\306\2217\000\000\000\000\307\272\3659\376@\265\266"
      }
    }
  }
}
node {
  name: "dense/MatMul/ReadVariableOp"
  op: "Identity"
  input: "dense/kernel"
  attr {
    key: "T"
    value {
      type: DT_FLOAT
    }
  }
}
node {
  name: "dense/MatMul"
  op: "MatMul"
  input: "dense_input"
  input: "dense/MatMul/ReadVariableOp"
  attr {
    key: "T"
    value {
      type: DT_FLOAT
    }
  }
  attr {
    key: "transpose_a"
    value {
      b: false
    }
  }
  attr {
    key: "transpose_b"
    value {
      b: false
    }
  }
}
node {
  name: "dense/BiasAdd/ReadVariableOp"
  op: "Identity"
  input: "dense/bias"
  attr {
    key: "T"
    value {
      type: DT_FLOAT
    }
  }
}
node {
  name: "dense/BiasAdd"
  op: "BiasAdd"
  input: "dense/MatMul"
  input: "dense/BiasAdd/ReadVariableOp"
  attr {
    key: "T"
    value {
      type: DT_FLOAT
    }
  }
  attr {
    key: "data_format"
    value {
      s: "NHWC"
    }
  }
}
node {
  name: "dense/Relu"
  op: "Relu"
  input: "dense/BiasAdd"
  attr {
    key: "T"
    value {
      type: DT_FLOAT
    }
  }
}
node {
  name: "dense_1/kernel"
  op: "Const"
  attr {
    key: "dtype"
    value {
      type: DT_FLOAT
    }
  }
  attr {
    key: "value"
    value {
      tensor {
        dtype: DT_FLOAT
        tensor_shape {
          dim {
            size: 64
          }
          dim {
            size: 64
          }
        }
        tensor_content: "/\314\330\275:\260\316=\t\177U>,\031;\276\230\360\332\275\2407\033\2750\247\231<Pg$<\272\034\216=\030W\007\276\207\334#>\236\247\317\275\224\206+\2752G\325=B|\326=N\3303\276\005tW>\336\340\307\275\355a:\2769\370\021>\254w\"=wM\010>\33755>y\032\027\276 C%\275\272g\353=\300`\023\276[\010\301\275S\3738>\010)\341\274vY\371=\363\tW>42N\275\232\354\326=\020!\273<\242\332\031\276T4\031\276I\032%>g\030;>w\254\024>:\224\234\275\217\2153>\373\375[>\214\311\340\275\356D&\276\237\223\034>\236t0\276?o6\276\020\363q\275O\3475\276f\346\003\276\000\304\315\271r\275P\276\025\212U>\200\355\021\274\247/P>44:\275\373\027R\276\301Q?>pO\020\276\t\rK\276B\355\244\275\300z6\276\362a\303\275\032<;=\376[\272=A\242 \276\256\362\246\273\332(\000>{^\213=\275k\332=\212\366\022<\032\303\231=\235\332o>\260\202\272\274\314\254\314=\227,+>\267/!\276K\263\251\2750\222\233\275\344\354s\275$\353\261\275g> >\033Z{\274\363\344\272;-\2332\275\360\322\357\275px\367\275\220\313\263=\357\026\225\275\343\226`=,\027\025\276\267\256\020>\223(\266=\240\031\263\275\312\177\002\276\023\232U>\341\301\003>\357.*=\206\215\233\275\327}\226\275I%\241<N\214[>\020~\010=\360Y\206\274\237Z\035=iu\314\275\005\013\013\276\244\3035=d\007\025\276(NK\276\240\361\223=ZXI>\314\"?>PF?>h\336\033\274\2572\035\276b\247R=\213\217\004\2764d@\276\277b_=~\373\244\275\204n \275\231\034\005\276\345\305\"\276l\373q=V\222\017\276\227\367B\276P\262S\275\302\364\022=\003E|>\247\360\341\275\032\326\223\275\202*\005\276 \353b>\301\031O>\365\204.>+\030\337\274N\263\326\275\245\235)>\230\245J\276\314\346W\276\371\t\346=\310/\366\275\242\032\205\276T/\016\276;P\311=\220\234\311=\1771q=\374A&\274\274\263\022\275P\250\352\275\277v\305<u\314\r\275\250\031d=\245\210\017\276\276\352\333\275\331\334\264\275\211\263\326\274\2639\024\275\362\372\310\275\354_p\275\313\230\017\276^c\256<b\017\270<\335\021\242=\031\230\366\273z\265\212\275\216\003\033>^VD\276km\017\276\371\307\r=\360\240]\276\333I\212>\036n\221\274J\n\204\276x\024f>\r\226Z=#\223h\275)\010\023\276\260\3301<\'\3609\274%\331\017\276\306U\343\275-\346\004\276\257\327B>\225\261\030\276\003)\346\275>\311.=\003\"\034\276U\327\201\276\3706\343=V\336%>\203\227\t\276K\255\273=\376\346\260\275n\246\361=\331\'\276\273\005\376\371<g|\003>\300-\211\275\276\225\245\275\002\3753>K1e<a\332\032\276\002\236\r>\277\004\360=K\342\201\275?\334t\276n\320\256\275\242C#>\022\363\232=\031\232\227=\325\273C\273\357W\204\273\351\227\303\275\377_\013>\027\262h\276^>\271\275\024\376\"\275^\013W\276\347\242\006\276\264\317\000\276\360\375,\276\214\351\207\275\221\020,>)\366k\276\031\303\325<T\230\n\275\360\007\016>`\023\235=\237 7>\025\034\210<\241\310\271\275\026\236I\276\345\224`\276\364\276D\275\346\323\026>R\264k\276\327\330?>+\371\202>\371\027\213\275I9#>\334\035{>\2565T\276i\340\006>z\330\226\275(\177\211<n\237\n\276\204\225k<\203\204\307\275\002:\335=\313\266\003\276 \220&>\037\362 \275\251;/>\264~g=\017b*>\240\2558\275y\221<\276b\033\231=k9\374\275!\373\020>\246\355\373=$4k\275\000pq<\311:/>\351u\003>b\273\035\276\363\217U>\352\276\306=z\361\256\275\036\221;\276\350z\260\274\2003_<\325B(>\360\030\335\274\361\206\031>\023\357J>\330N\335\274\376\245W\276\256\343\266=P0)\276Z\013\221=\026Z6\276\361\034Q\2764\243\036\276<rE=\331\027\'\276\223\235\026>\300\231*;iKW\276\212V\302=+,3\276\242{\303=\014\371J=\340\371\336\273\323\360Z\276\270\215\027\276v\030\211=\272Y5\276@\213\034\273\200-\364:\355\273=>\000on<\263\305M\276\345\240H\276\322\321(\276\'vI\276\003d2>\307q\024>\0344==R\351\322=\260y\253\2753\007!>\376+\021\276\372\244\214\275\317\307\024>&\203\211=\340\031}\274\030\307Z>\270\221\324\275\356}\330\274\376>\\>\215\036\320=\226\322\034\276{F\033>\314v\362=\243H\264<(\0233\276\243\244\305=$\026\233\274\312\240\332=\302\005%\276\036\2237>\270\306\037\276E\205\242=\243\202`\275M\201>>\230r\204=\254\026x=m\362\265\275\252I\n>P/\"\276\252\362d\276e\2510\275/\301f>n\0304\276\212$\007\276\'`e> \231\233<O$\276<D\'\260\275/\367\007>\302\211\261=s\221\212<\253)-\275\003\221J>\370\251\220\274\010t1\276\247(?\276*J\031\276-\330\016\276\314\244!>\362\277\253\275\3301\020\276\021>\344<\212\377\274=T\027\203\275\277\316\020\276C.O\276\017\364\201>,\032@=w\334\002>J\310\247=,Sk=\303\030\264\274l\r_\276\342\310G>\260\343\363\275\013|\010\276\257#\366\275qW&\276V6\306\274R\240\242=\3000\257\274\007\333A\276\334\262\225=\263w\347=\340\245o=|lF>\252\264j=\023\316\002>\350\202}>\321\334\237=\274|U>\334g\244\275\336\010\022\276\376\364\007>\271\274\t>-\2406>\256aN\276\332\333\t\275\351;\027\276 \210\026>\006\347\232=\273s\037\276\267\022Y>w C\276m\300\274=I\363\320=\3325\220=\274z\017=n:\370\275\355\002\370\275\202\2513>\232\225\013\276n\202\363\275D2(>\201\373\014\276>\216\202=\323\020B=d\214%=.vC>\2640:\276\003@A=\240\361\343=\253\276\n>\234\3348=\215TS>x\304\262<\310{4\275\273\261\325\275[\n\007=\336*\246=\0338P=\240\212\253<w\010\223<P\0350\274\006p-\276\030\375/\276\000bR= 9\277=m\0267>\222Z\230=\017\240Y>\257\032\320<\322L\230\275a\325\232<\366\340g\275P7Z=\316\314D\276<\0168\271\007\356Y=\231-\335<\205t\033\276\031\021\214>\344TR>?&\334<\252\261\251\275\030\236\247\275\366\321\312\275\371\277b\276l\336 =c47\275A\302K<\366Z\366\275\027\363\227\275p\343g=w/$>\253W\215=|TA\275\361\307=>\014]F>2\240\217\275\204bs=$\313Z\276\302\256.\276\305\006\203\276\032\204\357\275Ttj=T:/\276*\255\274\27557\035\275e\304\r\276R\261^=~x\035\2760\217\316\274$\206n\276\333\364W\275\232\325\302\274p\253E\276\'jQ>\323\331\033>\"\363\332\275>\371l\276\333\021\334==\327\205>\232M\237\275\0076\375;\361^C\276\3735i\275\330\315[\275>\262\306=\246P\241<\246\233\374\275\276$3>cxD\276\005}\217\275\264C5\276X}#\276Y\214q>\264\023\275\275\230\376\346\275\352\337\253=\323nH>\373\223\004>\336\365\341=\023\tS><0\262\275\236A\204\275>x!\2762\255\215\275\222\030\013\276o\216\361\275\300D\342\2749\353\017\276?=\303\275-dH>\360B\207\274\030\354\007=a\313 \276\360\373\242\275\014%\003\275\317\2140>\223\306R>\234-\177=\356\220\245=33\025>\334\335\223\2755]\\>\000{\210\272Fj\214=\300\017\020\273\260~.\276P{B\275\274RW\276|\007H=y8\r>n\246\345=<\022\037=Gi\014\276PY\241<H\231x\275\022mP\276\2731\t>k\003\000>\336\210\256=\177\226\336\275\240s\001\276x\275\211\275\033\2020>>\262\320\275\237\005\034>@p\317;\334\242\026\275\244\260J\276\237M;\276\354\363t\275\351]]>\014^\014=\261`\336\275\014Y\021=\263\325/>\251yL>\000\234\204:\357\ty\275\330\3452\276fy\235\275\235\210\020>\\\271\362;h\3023\276\317O\020>\364\\\010=\351%+>rG\t>y\366w\276e\243\247=\023\344\345\275\020\331\270\275\034t\"\275@\351\212;\254\257\244\275\234\222\037\276M\360C\276\214\025,\275\234\307\252\275\343\272Q\275\017\347<>^G;\276J\232\214\2752I\375=\320G\000>\343nS>\216_\206=\270\\\005>\365q\220=T\302|>\030|\022\275\271\020V>\202\262\177>p\317\213\275\243ES>\035\027\353<\300\002\243\275R\216\373\275\262\333%>\312\271\226=\345\367\225=N\345i>0\200\342\274\n~\000>\370iz>\245k\356\275\330\276\017\276\342\215->40\211=Z\3546<\352\3203\276?Hi>E\240E\276V\004\266=\235\251.\276\340V\347\275-i\360\275`w\332=\345\236`=\r\362c;\341\366\354\275v\243\211\275&\216\372=\344A+\275j\216\360=\356\033\007\276\\\317\t\276\tV\034>\340\317\332\273\006B\204=\377\241\304\275\007\003O>\177!)>\313@E>%\325\304\275\334\305I=\273H\006>\320s\004\275\236\225#\276\274\251,\276v\353\213=\233\335[>]bM\276\025UX>\\\272[=\212\304\314=\370g\r\275\240\312:\275\344\007f\275\377z)>N\337\230\275r\237\224\275\262!\315\275LgY\276\223\367;>\021;\\\276\317e\023\276\215\3433>\340K\004\275\':P>\225*\331\275\316~\236=y\312(\276\331z\000>\322+\022\276\303\260Y\276\366\263\310\275B\274\347=\244\324\033=\274\275e\275\327`F\276\0038\031>\331t\374\275<\362==\200e\240\274\362\214\332=p\264&<l19\276\022\2678\276H\217?\275\321\331\001\276\210\241.\276\026\304\331=P\230\205\274\323xO>Ub%>a\247\262=\206F\207\275C\377\204=\373\347\212\275\341w\020\276\267)\260\275!\317\270\273\335^\234\275R\257m\275\267\333_\275,\207t=\241\207\333=\007+\314<\237%1\276E8\261\275\265\277\014>\001\203e=\334R\326=\232P#\276\245\356\204>_W\200\276L\234\026\275t\335\036=H%\270\2750)Y=H\346A\2766\262\025\274\n\203J\276\2126\205\275G\232\263<>\274\322\274\0305\353=\363N9\276\353\322E>s\236\333\274}\237\241=\026\014\215>\034~\005>\253\310Q>\025\370\002>\367\030\352\275\210\250W\276?\205\302\275V\206k\276\200J\373\273\356L\347<iJ\322\2737\242\027>\236\367\210>\222\354\267\274 \275\355\275\311\2314\276\034V\034=\377Je>\300\272\250\274H\360\240\274\252q#>Aa.\276\264\360z=\005\3462>\206\202\032>\306\213W\275\025\257\013;\005b\203>{y7\276\002\265\271\275+\331\035>\253\027+\273\301QF\276\023\244\344=\345\350\027\276\211$\320=$F~>\257\322\021\276\201{\355=\355t\006>\226\246\227\275\364\006\036=m\032_\274\374AH=j\370G=W%N>\020\320\240\275;\240\237=\"\214\236\2756\241C\274\344a\304\275z\323\233=.e\311\275g\365\241=\354\336\302\275\300\274N<\201\026+>]\242l\276^\036\321\275:6\204=py\271\275,\233\001=\030\213@>\320\350\352\274\235I\021>\354T\241=\227\265\016=o@\001>\022\247d\276f&\037>\213X9\276%\232\341\275\001\334\r>\251\230\247\275\336\r.>m\2230\276\301\215Q=.\335\264;\372\006\026>U\260\256=\214\255s\275\227#\263\274\344b.=\342H\254=Y\306\227>\305\231\336\275\310\231\001\275@2\007<\366\3501>\253v\315=PH:=D,\332=C\243\021\276\234\367U=U\213\214\275\2473N\276\236\014$>\371\031\225=\255\016\017=n\320\034=f\345\210\274yG=\276\305\005}\276\227w\251\275n\304\035>\3629\372=C\024\037>z\222I>`(@\276\360\310~<\036\204\254\2753\262\010>\007*{\276\027\330)>\0271:\276T\222\235\275\034\'{\275&\026\270=\302C,\276>\356\363=\240\320\364<2\2553=k\232\177>\233]Y=\024\224\031=\242)\354=\271\325\215>\023\263Y=\005\256\204>\264\3066>$k\004\274\244M:>\027n]>\343\211!>\332U\r\274c\271`<\345\210K>\037\356W>\002\321\373\275\020N\025<\251V\226=x\3731\275\265_4\276J<c\276\364\017l\275\211\205\264\275(\036\302<\210\276\333\274X\263\032\275pvP\274\002\354\002>\264\213\266<\351\316#>?\207 \275\'#\376;y\275d>\027R\240\275\320\344~=4\216\340=Y\024\027\276\244\220\017\276\330$\034\276&\205\202\275n\261w=K\tr>\371~*>\024\264\322=<h+\276nam\275E\261+\276cwV\276\350\254Y\276\n)s\276\373\204\005=\017\256\317\275\\\207I\275F1n\276}RS>\336\017\257<\340\356O\2761\307,\276\227 6\2762Ar>\370K\233<\300\211\373<\037\275\t>\242l\013<N\270h\274\241/\001\276\324?\204\275x\273\030\276\022\344\200=z\224H>g\355\000\276\n\014\206>\300]\014\276#\234k\276\245m\214\275h\237@\276\203\266\207\276\200\032 ;\037\204v<\200\002\270\275\266q\332=\223\321\201=\375\030O>n\207\272\275D\340L\274\324\256u=Q\222\203>\002p\336=\267i\355\275\264)\341<\233`:\2768\030[\275\026\016\215=%\332=\275\367\336\002=!+\366\275\305@\236=,\223\\>Q\370\277\275\036\342\316=,\000\035>nW%>\0303%>/\202\025>\014\276B\275\010\375\300\275\3614\016=\350H\"\275L\003\225=]Sj>p:B\276\022\317/>\342\030U\276}<0=2u?\276c\245\n>\221)\n\276\361\370\205\275\257\r\035>\276H*\276\273%M>1P&>\214\004u>\375I\237=Ec&\276O\370\332\275\364\202!>\255\256\246=I\222!>\377\201\\\276\377a\004\276\024n\221=u\367\241=\017\010\017>\263w->\263\234&>K\256T\2760\006\327\275\333\031\006\276Y\265\033\276r\255\206=`5\334<\200x\031\275\027~A>\336\"A>\203\253\307\275\376\203\245\275\332\367]>U\347\245=P\337\207\275\\\340\303=\021*\001\276,\361T\276\r\344S=i\353_\276\365\013\020>\315\3065\276\326\347\002\276z\275C\276\273_J=w\343==0\357\370\275\025\221V>D3\224\275\361\340\317\275\223\3257=a\342C<P\251G\276O\326\333\275z%i=\3331\220<\324\037u\276\353!z>\303\003@\276\340NJ\276\031R:>\230,\t\276nT\207\276\334#\275\275\356\376\330\275\205\205+=E\367\343=AQ\244<\234\344P\276\000\267\314<<6>\276\270\320a\275\371\266\241=<\302#=,}5\275O\256}>zi\237\275g\000\374<M\317<>@E\022\273\352\3728>k\263\321=\t\334v>Z+\016>\002\237T>&\277\250=\326\033=>(\372\300\274\2448\353\2758\360\025\274\261)&>i[O>h\266\002\276\026\302m=\002G<\276\310\'0=\276\356\326\274K\272\276\275\240\204\334<\232\223\202>\275\340\027\276=\024\'>\023\240o>d\246o=\2754\327\275\233/\356=\243\363\312=\225\336\336\275\245\367\032\276\242c\302\275%M\016>\356G\371=v\r\233=\272\300\355=\326\365,\276\312\025\002\276&\334\213=\370\340P\276\254\355\007\276Z\315\344=\345;\037>=\024\353\275\360\030\207\274\227\313)>\036.\226\275Nv\221\275,\327B=\252\252\332\275;\355\333\275if\024>\313\224\004>,\3720\2755\242$>i\242\021>\326\035\306=O\245\017>\230M\375<<\320 \276\267?\037>\207UV>\002`\204\275`\304\247;\032\3764\276\203e\006>\030x\301<\\pX=\"\210\240=l\220\036\276tW8\275\035\337\010>\260\230\023<\371\260\017>2vQ\276\217\0320>[^U>\220K\276<\002z\222=~\033\220=4n!\276\\\233e\275\022s\240=\274VC=\347\005\031> \325\275\274Xl\277\275`\366\226\273`O\003\275[^=>a\006>\276T\346\035\276\\\233y=*\325+\276l\310M=05`\275W\220;\276B\217\003\275n+\r>\215jA>DoU>r\316\033>W\245\374\275\177\273I\276\350r6>el\335=\377\233\006>\324wC\2768\360\276\275)\014D\276\336j\'\276\372U\371=\324g\346\275\233\3640>\203`e=\300KK\276*~\356\275\330n\"\275\\\207N\276\216b\240=\032c\275\275\234\324\323=\377\250%:\260\376?\276\01444=\376\320\317=\'=9>\224Tt>#0F\276\312\006\013\276&\0346>\003\302\014\276\377[\266\274\375\016\005>\t\331$>\374\365D>\222\232->85c>\307E\232=\245\375h>q\004\335\275\026W.>\254)>\274\253-V>\224\010\316\275\237K-\275\013\307\n\276\034QE\276\021\222\'>`\235\344=\030_\215<`\002\'\276=\330 >\2241W\276\253\032 \275\253\220\312=2\240\036\276\rJ}<o\214_\273\363\210\256\275\251\315\371\275\235\021X\276\014\211\244<\201\230\261\275\014$\310\275}]K\276\026\372<\276\240\013D\276\374\311\023=\344sS>\212r2\276\t\235\237\275\311\231\372=\257\307\336\274\222\2048\275s\232\207\2758D\235=\027\000\362\275\252W)\276\r\347\020>\364\266\327=\177\0259>x\2042\276\356\306\277=\243\2776>\275& =^\302\243=\020\313\346\274\'m\340\275fG;\276`\2371\276+@\007\275Z\333\326=\200\2749\2765l\345;\311\336R\276\326\327\326\275v\202`\276/\321\212<\212)\204\275\231\3631>\345\342\234=\210/\264\275\204\237\003\275\000{\275;\350\332\232=\360\303\336\275D\230\217\275&8I>\311\007\202\274\034\273D=\264\034}>\353!D>\t\202G>\353s]\276\370L\246\275\3727 \276\3715\336=\223\231\323=\032\306J\275\330\216\221\274\237%0\276N\013\206\275\323\353\220\275\325\362\010>^\033\226=~!\204\275\304\007n\275\3675!\276\300\n\020\276\357qR>B\243\245\275\311\021\034>\n\317\307=\0209|\275\200\247\007;\311\354\311\275\356\270\346=\352\200\224\275\310&\321\274\016f\001\276z\304\252=>\210\266\2758]\227<\306\353T\276^\240\232\275\005\330\026>Z\310;\276z\315\274=\277v*>A\177.>\3608\"\274\212\'W\276f\n\205=\264\311)=\316\376\254=\243\207I>\311]\020>z\210T\276\274\2470=\343k\024>|`c=\200(b\273\253dA\276;\033$\276\000\335N\274\240\n]\276\265\311S>!\3462\276\246(\316=\322\275\345= \203\275;\n\371\315=p\353\211<\312!\212\275\0228<\276~+\340=\241\212?>\200\336=\273\022z\375=\222\314\215=\371\340A>\'\301\005> S\211\274\030\001\305<\017=X\276;\343*>\025QC>,\376\004\276\302\352\317\275\010)\\=\240_9\276\212\372\347=~\314\341=HM\271=\303\337T\275\253\367\251=\026\370\200=f\206\317\275\374r\027=!\n\277\275/nN>X\374\364=>\237\353\275}1\272=\273\036\217=\353\305G>\021M\201>a-\260\275\300\244\032\276gL\377<\036\250\312=\236~g\275\272\212-\276\264\357>>\376\342\261=\237\013R>b\246\366=c\2306\276\375LG>\334\255S\276\032\205\226=\'\025\013>\0268\335=<\354\202>\300\035\272\2748\236\013>\321.Q\276\027H \276%\322\014<\006\022\324=\020\266\351<\314qs=\264N\344\274\017DI;Q\222\330\275\206_\374;\261\203\034>\233\216\340<\030\314\274=\330\\\345<\333J3\275 w\273\274\200M\276\274\265\034\223\274v\312\214\2756l\020>\300\215|<\257\260\270\273\013zl=\230\377\231\275_\362\217=7\363\353=\277}*>j\002\263\275\326\\f>\235I\306=\304\326H>>\027\213=\270-\016>\335\374|<g/\"\276\323$]>]\234\026>i\346\370\275\246\333\277=x\020&\276,;1>p\021(>\311k\017>T\353Z\276\005\022\n>\017%r\275\344\202\357=\307\261\250\274&T\030\276\0069+\276\241\342\365<\377r\304\275pCJ\274\010\205@\276,\260\375=k\343\213=\320\300\007\276\004\2577\276y\324\036>Pd\327\274zF\031>Z%o\276\r\253m>\342\202\036\276\226\224\264\2757\233(>\005+\332\275\3503\263;,\250H>\000\214\221\271\364\316A=\313&\206>+\335\n\276\235\235\220\275\t\245d>\344\224/\276\001-\330\274h \004\276o\237!\274\364\330\004\276\030\351\250<\335\\<>\272\263\324\275o;\032>\304$\256\275\256\241\"\276I\t\010>\361\231\005>]\234\345=\241\311\'>Xj\373\274B\304\022>\007\023\021>\017\001\225=\227\031<\275~#T\275\343\365\306\275\301\032v\276\024,\020\276\321\"g>\206e1\276\321*\313\275\3123\034\276d\265~=2\005\214\273\254=\232>4Sb=\336H\226=\0256S>\247\2354>5\025\243=DD\311\275\370\336\216\274\350u|=u\230\327=\220N\266\274\304P\254\2758eG\275Vb\271<\017\205\033\276#Us\275\202\323\242=\303\202\025>\367\245p>m4X\276K\237\257<\206lM\275Y=K\276/7b\276puk>\373S\346=s\205\221=\tC\332={\260\376\275\017\026\034=\317<\250=;\356\274\275\372\216\220\276L%J>\216V\036=/\2146>`\366\263\273\221\331\262=\242B\347\275\336\323\213=fF\023>\265\2200\276Q\352@>\013\320L>\246\354\016>C\037\270\275U\216\267=,0)>Jt\331=\241\256\'>\0362:>\353\210\236=\213\300\223<\335]H<\377\2142>\323\315D>U\203;>\274Zc\275\306\2178=V\257/>\202\347\013>\366\006C\276\303V:\276\033f>\276\272\017\324=\250\253\225\274\253\027\333=\211t%>\024o\020>\267c\016\276\202\221B>\214\363)\276;\371\243\275\265vR>#8\030>\252\244B\276\231\222I>\336cb<\260,\330=\301L\324=\003\n\\\276\346\214\303=\231O*>\236\372D\2769p\202\275\206\213\363=~]\027>\371\037\342\274\377I\">k\356T>\233\222\232=q\347\035\276\273R\016\276\351\355\353\275\243\215\342=N^,>\350g\361<(\204>>\257\246\340=^\356\002;\302R\347=\007\n\013\276\266\313\237=\226\275\037\276\013W\267=\207\304F\276I\254:>\340\311\224\275`\216\223\275+J\n=6v1>bU\032>\215Vr<\\\000\007=\201)\3459\332)K>{\344y>P\374.>\021b\353\274j\214\002\275\212\'\037>\221]\001<\230\\M\276\006\361S>\213\266\250\275A\2412>(\275\215<\211\n\346=\253\371.\276w\227\010>\323\020\272\275\3613\250=J\266\272=\000\325\345=\255(K\276*R\347=\025]<\276\335\020\021>4u\355\2757i%>2\314\263\275\031h \276:&\006> \2301\275\236>\325=\354(\010\275\32077\275\275%\030\276\366\234\203=\360\312$>\324\336!\275\267\263\366=\3537\263=.!\272=H\036/\276\346\244\\>ln\237\275\342M\236\274|\262\272\275\2167\235=\3004\020\276\235_\200>\356d@=&\'\374\274\000\215?;{fQ>_K6>\243p\014>S\203\370\275\037\204\353\275S\\\254\275Oh+\276\327~\347=$*f=\357\346\035=\273\211\307=\247\305\001\276\000\324\215=a\243\314= \323>\276\013\250\201=\310\245\345<\302\033Z>\002\265v\275\363\370\214<OX\000\275\362Y\244\275\352\360@>K\223)\275\233\224\002>\334\203\'\274\246F8\276o\241\"\276\205\200G>\210\346\307\275\207R\334\274\212\365\353\275\332\271\013=\315?\036\276\334\235\255\275\353\277+\276c\321\r\275\301~\\>\225\375O\276f)\017\276\261\241C>\303<#=C`\226=\371\360U>?f\275\275\006;I\276\026E\202=\325\247/>\204\254+=\016B\223\275v\0067\276.\230\202=\241\374\335=x\250G=\371\006\222=\220\321z\275\340\241\221\275\277v\215\275h\207\275\274\300\317]>N\375\345=Yk\035\276R\316\360=2C\307\275\322\350%=9U\312\275V\207\273=5i\343=,\323\021\276\304\333\233<\010L0\276\215\224\373=z\215\214\275\220s\200\276\364X\313=wM\003=\026\314=\275\007IO>A\360\327\275\255\'\032>ZR\223=\351\237\314:\016)\367\275\203\333\003=\215\354\330\275<\275\343\275\036bk=\367>\"\275lY\005\275\017\317\227=\330\313\036=\023\363_\276\256\361\241\275FZQ\276C\242c>\362\216l\276\365\202m>(1[\276\316\210\007\276H\014n\274\301\324\252\274\330\021\333\275@\020P\274\200I\247<\304\325\354\275\236\347\215=\255\362\324\275\300\031\"<\274\177u\275\262kI<~\002\224\275\013\266\206>\211K\036>LvJ>\336\263\265=$`#\276\017\224\026:\314h\013= DW\276\330\233\353\274\255\224v=\004\033\017\276\333\021\201\276J\202\215\275h\365o>J-q= (q\275^\237\362\275]\274\264=\210\215\315<D\254&=\014\2436\276\360G]\276\270\241\361<1z8>\024\340\243<N\321\335\275\323\315b\276\036\213\327\274\224\365\022\276V\350\322<\001\334o=AxG\275\242\237\n\276-MH\276\032\345]>\007\022<>\030*\002>\037z\365=\362\310E>\"PX==\214\227\275\020\027/<\336*\276\275q\226\230=\315\370&\276f\033\326=v\206\025\276\303j[>G\262J=\332{\254=S%)>\263\3308>\004\334\224<\022\303A\276/.\000\276\270\n3\276\310\r\217\275\356\305S\275r\036Z\276\013l\315;U\320\023>\\\376\261\275\252(\r=3\325\203\274\2102J=<OL\2766\220\023\276\220\356\210\275\361[\347\275\004g\366\275\021\212Z\276kKT\276\352\321J\276\036\356\t>\021\034-\276A\264\r>\243\306u>Y\314\000\276\336\265L>H\306\330=,\177`\275\343\376A>\261\021\024>\036~\260=\005t\345\275\263\303\022\2768\371o\275\271\331Q\275\222Z0>E\272\253\274\004*\242\275\374\211\363=\376(\300\275-\363\343\274\252\300\314=\027\233L\276:\271<\276\355\262\272\275\346\3503>\363]L<\226C\206>\216H\024>\010\257\022\276\n\344\302<\336N\221;\n\220A>G\305\010\276j\272\222=\362\256!>w\323\366=c\334\001>\007\0008\273\035R1\276\221\265b>\220c\222\275f\3734\276\013\365\027\273\332\310\001\275\005\026\233>\372~\247=/\002\007>\005\267e\276\226p>\276\020\025*>\225\"T>\000\273\241\272d\006.\276N\2326>\265F\022\276\\:o\276\240\021\236\275\252\202\031\276\330\017\215\275u}\216\275\351h\250=u\274\250<B.[\276\355\235\027>\024S@\274\010~\207=\346G\340\274\222\301\006\276\213\313\271\275\300\232\200>\004\246\035=#Y\342\274\026\200\301=\300\356\017;\035\360Q>\311L\264\273\236\017c>Ky9>\350\213#>\242\2022>\277\203\177\275\313wX>\340O\242\274`\302\227;\372\013T>\240\250\030\276J\\\224>\315\276\226\275\177\202\205<\n(a=\272\302I>\344\374\016>dS\216=M-\265\275\277x|\275\200\231\226\274\362\375\346=\215K.>z\261d;\234\2211=\336\013\016\276\217&n>`\023\203\276\037Xr=\205\262\016>\300o\001\275\333?\337\275\230\227j=\305S\251=0\335]\275W\333\002>\024qa\274\037\220#>i\370I>Bm\210\275`\316$\276\275\332\212>\351\215\245\275\354\010\230=;\327\034>\326k\036\275\351\002G\276\337\365c=\311PP>\230\003\340\275\243\035\237=\3761\222\275\363/\264\275\343\364\212\2753\314\025\276\251,\265=\301\314:\275S[\236\275H\233\210\274T\324)\276\263V\201>\3202\343\274\004\327Q=b\274_\275\250\003\317\274\312t\336\2758\254\343=6\377\014\275\256\314_\276\335\274J\276\322\347\021\274S\253\233<\350\374\263\275\3718D>-\327.\276\303B=\276\344.o\276G\225\202\275\355.\r\276\014\315\331\275)\370K>\004\016\246=\311\340c>\325\363\235=\202\021\231=\003\371@>\002K#>\345C\237\275Lq~=l\\#=\213f\027\276\311\363\305\274\274\203\275\272\253kT\2759+\332\275A\001\315\274\366d\363\275\315\010k>J\253>\276\024u\022\276/\025#\275\215\215?\276\233\255q>\315\022\374\275\037\204T\276\021\2233\276\3470)\276\302/\251<\344\243g\276g\241q>\216]\362\275\216\350d>\210$\000>\005\220\034\276\\\302\347=M\304J>Sh\305\275\032\357Z=\034\306\357=\276k\315=b\276\373=\032\314N\275\003\340\r\276\330\'9\275,^\216\275^/\271\275\204\320\261\275\345\313\344\275\010\327+\276\243\271\037\276\270t\373<\274i\356=1\021\026>O!\">\314\316\010<\226~i\275+\377\000>V\007\260\275\235\351\341\275k\345$\276Em\212>\344C\305\275\322^\026>]G%>e\033\231\275\336qs>a*\001\276\241\216\267<\306\202\037\276T\271\253<?i\211<@&L>\031\266E>\\\3303\276QD\374=\235d\215\274\232;K=\014\253[=\000B\311;\177\250\001>i\254\343=\017`\202>\264\305@\275:*\323\275M\255W\275\215\263\034>2\255\240=.\225\323\275;\314Q\276oy\216<\"\035L=\360\017\"\276\010\310H\275\371\203\364=\3379G\275\212\336\r=p\227m>\177\247\335=\002\332\357=-\036\300\275\346\300\233\275\375\255\214>7+(\276\251o\037>\232\333\350\275\265-\021\275\260\250:>\000\331l\273H\375\025\275\356\203\211=\251\233$\276\356\255\013>\365\3304>Kw\325\274\237BU\275V\343c>\022VY\276<\3167=\272!\254\275\363\330\343\275\313\024\373\273-\237*\275\227\312/\276\351\245->\232\334\353<\3500|\273dV2>\237O\004>\330\231\033>\327`\027\276P>\303\274u\224\">xt\025>\301\360E\276\2402\257=k\227\200=\037);\276Y\266\241=o\366#=\006T\323=\242~@>\030h,>\356\002\000\276\375\255K\276\371\271\320\275\355#>\275dr/\276\323\013-\276\226\311\265\272KVA>\037\232I>\347c\016\276<\376p=>\312\330<$\310\305\275\340\377\262=\266\250\200\276\rqt\274\036!\243=E\247\324=\253P\261=&\220\247\275\255\203\323=.\273D\276S\257(\276\255\377\r\276\210]\333=v\"F>!A\364=\334\215E\276\267u#\274s\340W>\200\205\222\275g\263E\276\332U\270=\255\371_>r\210\024\275K\257\207\275\340p:\276\250\334A\275\224(\366=I\231\037>\323\002!\275\301\2057\276\023Y\234\275)\237?\276\307$I>(YC\276\032\005/<\220\215<>=!\034\27660M=\264\2353={-\254<\334\236\335=\"/\326=\004\237#\275\361#\240\275\032\001a;+\\%>}\033\032>\367{%<]\3132=a\354\334=x\336T=\341l%\276\360X4\276\334\356\277\275o\367I=\202\222\354\275cS\">jf$\276\313Rq\276\036\227\005\275z\331\347=Z\024\341\275\335\332\315\275F\016N\276\355\262\231=\267t\365=A>e\276OM\232\275\372\"\004\276JZ\317<=\026G\275\247\373\223=\372\002M\276S\nH>\347i\211\274k\212\034\276\372I\360=B\217\201=\276Y\260\275\272\021\220\275\233\372\207>\nh%\276\262\034\335<~\007\373=\177\372\341\275vS8>\353\004\343\275@\271\034\276\330^\003\275|@\356\275\304]\225=\254\033\225=\222\225\307<\000\337\325\275)u`=\000X\003\276C\211]=\207\365M\2769di>\277\367^\275\013|0=)A8=\2421\202\275\203\244\256\275\245\247\257\275\365*3>\271\033G>\246\002\325\275\006*\313\275pO->+g\251\275\255}\004\275\025;\355=\225\204#\275v4\267\274#\221\245=L\307s=\2516\330\275\301P\'\275\022\256\035\276B\373\222\275\200c\376<\334\355\315=\000.\327=.%N\276T\022\234\275\022\356\377=\310B\000>9\276>\276F7V>\333\024\334=g\275U>6\267\241=#,4>P)\233\275,\004\373\274\025|\237\275\366\316\217=\207\335/\276\201\366X>\025x\320=A\3652\275\366r$\275Q\354\256;\307HK>\216L\n\276\306\261\247;\2641W=\320F0\276\362\257z\274-i{=\014\314o>oZ&\276\251\241\037>\307\233I\275\332\2361>\301T\342\275\242\241\207\274\252\020\262\275\307F\333\275Ch\003>\316\002\367=\274u/=41m>\264\377\260=\354 6>\226\223\"=3\341\262\275\211\326V\276Q\336m>8\357==r\275y=\252s>>\206U\027\2768\265\360=4\017?>\360\026\356\275\231\244\377=\321,t\276\355\311\221=@\006\013\273W\2603>\254\362\243\275\334\001\356\273N4\005\276\336\251\017\276\331\247\300\274\230a\256\275\307\315\211=\240\377\344<\320\3410\275\2717(\276F\225\322=\217&\t>\031\245\262\2745T_>\374x\034\2768\205\247;\335\010%=\337YE>\321\240G\276\232 \377=+\353\263<\237~%\276\266ue\275\311\247W>\323\304Q>Q?\244\275O\262\201>\261]W\276K\270\320<\266\222\021\276X\221B\275p\036N\272\000H\014\276\231\025\320;\316\235Q:\326\305\026>\260\236\247=\217{\035>!\0026>\361,\213<\311\t\375=\2579\340\275\260\210\226\272\2675\210\2769\273\210=\250\232\022>\302 l\275O\361\000\276\207\261\227>\022\177\020\274\"\323\206\275FR\033>\372b*>\243\371\354=\240\246E<\365\324\027>\016t\206\275\233#a\275\224\035x<\"g$>:EL>.\"\023\274\024-!\276\275y\314=\032\254\216>z$t>\232\236\225\275\\\267I\275\324Q\361=\201\332I=\313\314B\276Gd[>\236!\352\275\r\261(>\235Q\262<\231<o>:\234\217\2752\377z\275\320\377\377<\355*\r\2766\257\244\275\201\273\212<1a\367\275Ae2\2762\256\263\275\001\375\202\275R\252^\274Owg>/\371\217\274\374\243\374<\257-`>X\340\r\275\364=z\275 7\313<\377\376Q>Ti\355=\022\2355>2\335\257\275\200&6\276]\360\025\276\227R\344\275W\256\317=\221F\365\275Yt >\204\332\344=4?J=\346\313e\276\260\377\250=\024W\207=\270\2313\276Y\260;\275\0358\276=o\316<>\000?e\276\363\022\016\276\331\232\367\275\232\263L\276\010\210\346\275\255\354,>\336\304\335\275\377gV>[\252%\276p<\236\274\336\037\233\275\310\377\001\275O\005W\276\357\327\016>\261\037\243\275\247\207\016\275\325\005\336=\276[\321\275\240\000\266;;\241F\276\200\207\030>\\\332p\276\022\365\213= 4\237\274k\007\354=;\354\014\276cQq>p\340\346=\010$\005>\n\344\223=\371\220B>I\356E\27465\037\276\363\367]\2760|\343\274\301\220.>T\261S\276\034\3553>\030[`>\250)\367=q\236\300\275\276\327<\276\271\311[\276t\010!>\240\265\340\27402\260<]\255 \275q\271\017\276\311\024\\>B1\327=\027\256\'\276a\005\013\2762[\r=\237\252-=\226`4>\343p\313=J\203)>\314\372z<x\026\300=\266{\235=7\205\276\275\343\005\232=|T1>\'\265\265=\300\361\350\275\310\022+\275\207p\275=\036A\002\276`\215\t=*(^\276\342\016\210=H5F<\325\037Z\275\242\000\t>v\242\231\275\214\237=>\007\314\t>\277R\002>d&\"\276\230i\214=\344hq>T\310\034=\212\224\204\275g>w\275\343\264\203\276\3342\232\273F\256\007\276\240G\035\275\265u\334=\354Jy\275\353\240|>\230\212\367=%\004p=cFI\2762\262\007\276\2640-\2768\372Q=\312&\234=\211jW\276\371\000\276=\332L\211>5\026\224=O\346H>\007\341j\275\236\374\244\275\254\034Q>\217g$>IYg>\324\211&\275@\000f\275\272\2449<F\345J\276@!\">\321\213\"\276\345y\371=\021^\342\275\343\000V>\322%\263=\334\372\t\276\010F>\276$\236;=\000P9<\363\370\023>\254\n%\275\333x/>\306\\\004\276\301\3402>R\244\034\276\320\210\340\274HQ;\275\202L\231\275`\252\247<,\0024=i!0\276\236\216\236=A93\276N\327\360=\261\371Z>_\251[\276\033\252\305\275\014 ^=T\234h=y\345\037>}@/>K\213 >|\365>\276\267\020\025>$\347j=By\236=lI\035\275\370Q\235\274\334e\007\275\274\203r=\310#\273<\377\227[\276\376\305\260=\307\256\315\275iv<\276\220k\265\275\323\r\003\276\2617\350\275\031\206\016>\200\230u\273\322\213L\276\\\303B\275\001\306\035>0\373\215<R\246C\276>\300\270\275\244\321\"\275\234:u=\251&#>\326\2719\276\361M(>\016?\356\275\372\325\220=\3647\033\275=\236\021>\245\002\377\275\013\265\022>\016P\223=\332f\262\275\007\300\305=\256\235\201=\023\271\016\274\035\203\321=4\010\335=\222ed\276J\177\252\275)\005\232\275\024\273.\276\013$j=\316\341\036>7yH>\327\273\240\274\\\205D=\"\242\010\276g<\022\276\365\240\265\273\344<\036=\371\344,\276\211\350\241=\272@\'\274\025\324)\275mH\341\275\300t\310;g\024\030>\255\037`>v\nH>(Ao\275\022~\363=\334H\000>4w\215=\035\000\306\275\211q\352\275p\001\037\276\210\327\"\276t\005\232=\310\001\362=E\035\347\2748\017\310<\322x\014>]_\035\276\273\241\017>W\323\006\275\271\362w>@mz\273\261\217J>\211V\301=(G\253=\266\340\340\275;=\030=\263\301I>E\337\341\275\254\003$\275=\365\027\276\034v+=A*\360\275\027s3\276\317^\246\275\017\245b=\337D\002\276\233#\032>\220\372\222\275j\004\027>~\331\227<\'\202\017>V\332\325=\201:\030>\226w\200\275\006\205N\276\300^\377\274\220C\313<\360\035\261\274\256\252\200=\272\0237\276\325\222 >\266Z\224=\365\331@>\000\r\020;_M2>\2354\361\275\300\240\320<\360\305A\2740\0334\275V_\037\276.0\201\275\000\335\031\276\204\272\267\275\356\036\026\276UE\030\276\202\210\247=YU\036>\244\005x=\240\322\377;B\327\321=8d\n\276<l\014\275=j\036\276\301\032C>\353\247\025>\337\216/>P\225S\274\246h\030\276\241W\t>t!\347\275h\346\017\276\243\243Z>t{r=\202\037S\276\357;+>p\000\342\274#\233<>tz\021=\000t<\275\0362*\276\322N\314=\312\017\271=\216\324\350= \200\355\273\214\034s=\312\272\356\275Z\016\361=\252\027\357=\020\365\022\276\210\014\303\274\014nS=\204]w=\204\366)\275\014\230\306\275\267\321\260\275?x\302=\370\255\014>c5W\276W\377=>~\tS\276f\312\330\274e\"7>\035\350\246<\300\311\020\276\016\372t<\245\026\000\275`4d\276\204\2129\275\260OB>\264\375\212=k\222\366=\257t\302\275\022\001\005\276\226:O>#cG\276r\006\372=\010_\252=\010\034\377\275\322\304%\276e\335\214\275\276\tL\275Oo\013>\222\240\251\275\230\364]\276\224@\241=\021pj\276\222\200\255=\034}Q=\t\262\303\275J\254\277=c\304\377=g\331\263=\327\360\304\275\302jS\276Q\255\366\275B\014.=\007[\357=\223\021\304\274\250\276\371<\311\234k>^[\004=\221V\200=f\265\034\276\323I\030>\376#\324<\363\347\021>\310\254\250<\275<i\275\334AO=\261\252\r>\233\004\023\274\tU)>/N:<\266\237\262=\333\376\351\275\3447\344\275]\013*\276\316\240\243=\034L\022>\263\304>>}\352\331\2751\020\375\275g\333\004<\234\273\221=\322\377\355=\341F\255<%\034\315\275\312\231\004\276\"]1\275\"4>>\025\305\017\276\212\367\211=9\036\356=\264\003Q>JnT<\004J\341\275=\304\002\276\216|c>=\032V\276\212\375\220\275\006\375`\276*+:\276\232\201\036<\310\247\237\274>\001\007>\000W\227\273\n\222\363=\253\'\216\275G\037\027\274#\247\341=\314Z#=\223%\t>\022\\\260\271\240P\203<3\251I:3\337\327\275\025lx>1\366\'>7rz<\242.\246=?*6>\337[(\276\300\360\206\275\rsv\273\237\212~\272\177\363z\276\304u\254\275\202\350\324\275h\234v\2750g\\\276|\277!\275\274\257\003\276\210\204T\275g\237\\>]\244\234=t(\r\276\016/\346=\330\377\334\275\223\277W\274/u\003\275\032G\030\276\220\334\270\275F\206\014\276P}/\274p\322>\275f\013\002\276g{F\276\004C[\276\362\217\377=\250\214\327<v\"\342=8t\260\274\343\213W>\256o\357\275\251\257*>,\304,\276\036\261\203=\360\372,\274\202\366\244=\347\306W\2763d0>Q\333\010>\344\267\\=\216\324R\276\332\305\256=\370\223\270<\350\356\233<|\300I\276\302\276\337=\212\3576\276?9\375\275d\371I=,\035J\276\014\373\323\275\314G?=\364\0019\276x\276*\276\214ph=\312\203S\276d8\313\275\2202O\274\025\2003>tH]=\022x\357\275\217!+>\377\307G>)^/\276\370\210t\275/\220C\2760\356\314\274\330`G\276{\2551>\035\201\350\275@\"\361;\324X\037\276W\\\\\276\342{\204=\205>X\276\376\023X\276\225\216.>\300\303\325\273\252\006\367\275\230\347\251\274\341#?>=\333\033\2760\2325<+;K\2759\320l=\266*\223\274\231\243\210\275\233h3\276\250\322f>\001\313\302\275\023&u>\344SR>c\215\017\276\014!\032\276j\306\262\274\216:\007>5\rE\275\251\205\001>\364\222\217\275\262\235z>\250\266L\276\024$\303\275\361\240\207>\252I&\276y\366\323=SR\026>\"\361\254=;\346\006\276M\014\343\2743:\004\274C^O\276\240\356\033\275\245\211J\276S\327\200\276\232\210W\275D\007\177=`W\214<b$\020\276\374\311\313=\265\271\000\275n{\243\274\033\013\301\275\361\331\376\2758\032)\276g\241\037>\026\024/>\273I\035\276}BF\276\261\356M>\235\030N<\251[\030\276\332\000o>\264u\265\275\371\003\036\276\236y\325<hW\374\275%o\024=P\r\375\274 \'\004=G\305\331=\000F\322<\201\222\211\275\252\317[\276\366\213\t>\267\312_\276\0315&\276!\220\">\352\332\324\274\035\233\010>\313\354\2559\320d\341={\357F=\026o\030>u\216\t\276I\0300>\320>\227=\371\276R>h\274)\276\214\365\376=\221\036U\276\263UP>\000\253L=\311\372\032>\360\314D;\021\331\242\274\371\305\244=r\246\211>\t\356\005>\2355\t>\'\264\334=m\231\032>#)J\276\313\034\t>+\377\206>\000^\023\274\332\302\240\275\001\356\250\275g\377\326<\231\272c\276\314\307Y\275V\010\373=\354\010\246\275\366|\365=v\006\206>L\013\266\275\262`\332=b\200<\276A\362i\276C\210_\276\275\234\323<}Z{\276\000f\272\275\371\037\205>\0317s>\301\377P\276\345\272\014>Q3\007\276\264\022\205\276B\376\273\275\222\216\341=\365\341]>\004\004.\275 \336\234<\355O\372\275\013\376\330\274\230_\205>\033\344Z>\204\022\276=\360h\217\274\304\313T\276\017U\206>\231\316==>\232\233\275\346\354\273=\r\342\202>\245\366->\352g)<\363vQ\276\225\3163\276\321~\236\275y\363!\276:i\">\341b\007>3\224\241\274\343\261]\275\205\316W\2768\215e\275@\246\007>q\376\211;\312\341\350;\007a\305=\212\327\252\275*y\020>\336}S=\3023\\\276\030SJ>\270\265f=\021/\n\276\355\3411>\214^#\276S\244C=\342Z\200=\352\360\r>\245\245&>\200(\034;ej\230=\360^)>\253a\205\274\271gk>\360.\216=\273\2422>d\004p>\342P\t>n\017G\276}2<=>\357\320=\302\201U=Oc\203>f^\026>\222\220\377\275\001@\034>\305\270\353=\203\207\001\275\362\2138\276Z\010\026>8\321\340<\376^\301=\'\260Z>n\333\270=\234\362,>{\273\334\273\311\nl>\r/\362<\202|\323=E\013\177\275\223\330\266<t\274\346\275\216\343\251=\222\261n>\356|\326\274-9\300\275K}\365=S\344\320;\346\311\245;G\270\014>\240\300J>We\004>\237<\343\275\000.\212\274\nt\255\274Ee >@\367s\276hW\034\276\201:P\276\266\321\310\272i,\021\276[\306F\276p\256\342\275\331\205N\276\302\221\301=\2473\315<)\017\243=X\264\242<\207\362R\276\212F\333\273S\330v>\344\356\251\273\230CK\276\233\336\360\275\2517\326\275g\214(>\304\370\313=\030G\330\275\340\014\336=\010\375\033=_\310\027\274,\215\352=B4\027\276,\003\356\275r7\035\276\257\206\024>o\307*>\251\361h>\361\346\313=\241\023\034>n\343C>r\014>>\010\365\266<a[,\275\322\266\375=\003\031\352\275\302\224\275=\306\210\231=*\355\235\274^\323;>\343C6\276S\265\031>b+\253=H~\213;\341W?\276K\265=\276z\215K>\233\226\356<N\023\227\275@\340\306\275\203\005C>\263\033_>\211#\347=\013Om\275ob\274\275\202\3042>\205\342\222\2759B\026>\251\241;\276N\221U\276>[O\276\'uM\276\364\231\364=\342W\352;\001\3609=n;L=\306@\232=\300\345\217;\236\006O\276^\205[>e&\031\276+x\013>\211\311\025>R\205\333=\272\233\010=\321Z.>)K\367\275\"G\262=>u/>O\234\002>\032w\370=\014X\t>K\361B>\230\373\\\276\244r\036>\253\000\220=\314\231\035\276\"\231\372\274h2\007\276\362\250\026\276\237\204\252=\313\"\200\274\376\260z\274\356dI;\n\354\254=B\2754\276\277\323\022>\241B\006\276\014\337U=\300\227W\273\206\324\004\276\232^\216=Q\230\341<g\201?\275hG\000\276(\036{=p\344\375=\205\344.\276\333s#\276\021B?\276v\251\020=-\347/>8\257\007\276\274\313R\276\315\nN\276\010\262D=\\\266\030>\362%=>-n\264=\212\013J>\365\017\320\275\300\'\215\275\273\034\005\276\267\212\316=9\021\326\275\360O\240=\245\375E=\211\037c=F~\235\274O\264r\275\323/\005>P!J\276,qS=\341J\202\272\277:P>,c \276 D8\275[N\200\276\323\340(\276\377\223\034=-t7>\r\277\003>K\312<\276A\033\303=&/\200=\335*\021=\211Gv>A\263\\>\245\363\">\0276\226=s\370#>&jT\276\246\205\343=\242cj\275H\240\242=\274\232f>\320\324\303\275\250\320\023\276>\366(\276\337c,>\210\312&\276D\030\032\276\210\2409\276\300x\325\273\375\367\365\275\331\213\t\276\265\377\026\275woF>\361\n\217=Q).\276\037#\203\275A \233=\213m\020>\346A\234\275&\3321\276\000\336\037<ND:\276(\2767\276\014\237K=\004\304\267\275\247x\024>Dhn\275\206\\\025\276\027\336\035>\3044J=7]\">@\363:\273\270T\302\274&\336\277=\320\347|\274\003L]>zS3\276\314\325\304\275\030\367\210\275\320\3410\275\226\370Q\276T\377(\275\234`\020\275\232)\246=dI3=\240\240\214;R\230Q\276@i%;\304\332U=\034A\r\275\013!\016>P\216\037\274\224\267}=D\321B\276r\252\246\275h\320\t\275\340\345\226;\376\027\t\276 \356a<\320\333\023\274\237\tZ>\222\337\303=\323\024(>\002\377\371=\"\263\306=\034\262\017=\257\207\031\276\016\215\014\276\342\020\252=b|\344=\010]\007\276\201\334>>0\222\023\274\010\300\247\274\354\177v=NA\026\276\243\341(>\204\326\213\275@\301H\2762\013\276=\350+\262\275\342\027\367=\000:\367\275\2272\032=\010\025\336\274F\201\232=\253\026\345\275\302o\211\275 \264;>\334\313\226\275\005aX\276g\346?\2766U\032\274\013\244\262\275\300H\333<\034\360\266\275h\3577\276\0141y\276~\333\216=\237\024=\276~6\003=\002\367\250\275\022\253\277\274 \275(\274\004\264\374\275/6\214\273\330\362\021\276\374\244\345=}?0\2760\316M\274\374e\215<\366JG\274$\353\223\273\203H\013>5\364\310\275\231j\313\275ra,\276\242\217\025>\032ep>k\223\240=^w-\276-\220\313=X\341c>X\221;\276\204`\305=\275\237\031>z\302%\276\234\200A\275\030C\022\274\205\2349>W\302c>\216\323L\275\270?\375=\250)\345<\004C\023>\023\037[\276\360\177 \276\270LU>v\310\210=\331\203\r=W\371L>\367\311\023>=u >%\260\001\275-\035\016>K;<\276\311\001\025\275X\230\353\275\237\303;>\335|\334\275\236\201\t>\225\364\037>gJ3:\305\336\367\275\034\317\'\276j -\276\036\0133\276=\001Z>\343x\025>\010P\247=Z|,\276{\377*\276\345\203B\276\263\017\372<\221O-\276x\035g\275\307e4>MXq=dr|\275\277\240\350<63<\276\217YN=\240\375>\274\244;D=7Ox\274*\272\321\275_\316\261;\231\022\037\276\200W\257\275\341?8<\371{?>`,J=\346\265\372=\3266\232\275B\027H\276\237\2639\276\177\205\352=\033\244\214\275\335\222\t\2760wR\276s0\213\273\227\230b>+\022\037>\315Y~=\r\250\017>\243\010\264;\312\341.\276(\270H\276\0131\255=\010\330\231\274\256Q\217\2750\342I>\257\227*>k\357\204=\364\222\034\276\372h\017>`a\212\273;\303\251=\303\210 <\202\232\217=\317\002\321\275\360\030X\275\342\225\202=4\n\251\275\230\210\237\275\322h\335\275\rvW\276\277\025\034>\016$\234\275\326\354S\276\036\234\024\276\371j\342\275\262S\004\276\240\336\274;\267\204N>\'w\n>\347P\360\275;&\010>\370u#\2752-\341\275\252{\200=s\207Q\276\306\235<\276^5#\276\300\361\006<B\366\331\275\274\361\237\275\020i\253\274nxJ\276\310R\001\276\322\254\211=6\216\325=\314\253\n=\014\331\021\276y\224\320\275&\246\037\276\337\344G\276q\372Y>\355\265\032>\021\351\031>r.\214=!\0107>T\263\034\275|)4=P\347\346\274Lo-\276h\374\351\275\027\t\016\276x}\002=\301\021\002>\\\321 \276\205oX>\273\n!>.\221\212=\013\3064\276\3628\237=\202\301\017\276\324\034\030=\014\2613\275\027\3235>\312[$\276\320\037\370\274,\317I=tC\332\274\\Sm\275\253aZ>\337\213G\276\243\036\223<\267\344K\275\372\204\352=\254#2>\310`!\275\240\346\375\275\344\221&>\024j\202<\207\371\266\275\233yO>F\204\337\275\303\234J=s\031,\275\235\316\302\275\3726\333\275C\250\000>qT\371=j~\005>Y\362\345<\014\233\031\276\0301{\275Y\006m>\'M\022=\374\000\026=\233\333R>R\256W>\217\034\332\275twF>\215:\\>^\316\331=B\310\210>\342k\020\276Fz\322=i.\006>@\0102>v\370\335\275Z2\021\276\262\307\240\275\304iB=D\335\">\245\255C>\327+\021=\265\356m>\332\363h<|\350\n>:\254\250=\266\267\031=Tw\330=\346{\213=\262\357V=\2069=\276\024\335\243\275\233Cy>\330\267\364\274c|\361\275/=\230\274\366K\006\274$X\355<\236]f\2743\240Q>\3679\037>;\342<>z\031\233\275\340SH<8v{\275 L%\276\315\351.\276c\315P>\245iH>\326<\364=0\240\316\274O\2157>\266\000\254\275=z2>A\245A\276E8>\276\250k\344\275@<A\276\334\027-=<9Y\276\nm\260=\031L\304\275\372\257\266=8\320\314<\357, >\304\0077\275\256\017\331\275\300\013B\275\224\221\257\275\365s\357\275y\270\311\275>\217 \276\204vK\276\035\322\005>]\351\023>\0173S>\262\322\265=!\262 >L\374\034=`\322d\274v\336\327=\220\0311\275\302^%\276\277XK>`\006l\274\006\351\376=\020^\376\2746\363\227\275\231\247\023>S\334\017\276i\302\337\275\344\274*\275\037|L> \3611\274\211\354\t>nS\341=\033\372\371\2752\340\326=\201\262D>\206\327\317=\033\203\351\275A$\n>\020\211\234\274bk\200=\224kJ>0#/\2766qk>{8\376\275N\257[>\226p[\276\356\013\360\274qE\036\276\327\365L>B\314\210=\351-f<tI\025;G\256\\<_\251\013>9\261=\276\300\341@<B5\276=\tK\004>\031\021\216<\314\307\215=tg \276\272\254\326\275|\222\207\274\364\221L=\021\002\033>\237\257\213>\036\031v>\3601%\274\246b\245=;\030\247\275\263\014\217>\203)$\276\367\321S\276\002\202\200\275\367\351\265=.\243\216\275\360\020\014\276\335eb>=;n>\214\2308>g\340\274=\263P@>\231\3052\276#\235\215<\340ev\275\236\237\366=\350\t\344=\321h\263=\025\200e\276\351\273\242\275\241\261\177\276\373\200W\274\240\')<\264\213\262\275\207\177\306\275\314\013l=\001\301\310\275\\%\031\276\323\016R\276w5\322=h\344A>\321\233\370=\201\246\366<\036\3548>\200\r>\274\360 c\275M\206\317\275P\'\036\274s\234\\>\373\321\020>\2741-=h\212\266<\230\351\233\275R\276\274=\365\203V\276,\2216=\360TH\274QW[>\3240\013=\316\305\365=\324o\202\275z\254H\276m\232]\276!\nF\276Z\270\362=\203\245>>\376\013!\276\002\">\276\377\226\375\275\024^\037\275=O >\301\"9> \217\250<\263w(\276\244F\021\2753h\002>\276W\315\275`\351\263;\372j\023\2765\251\032>\346\030\304=S\254Z>\332D\257=\226\275A\276\361\372E>\026\323\224=\362*\325=\211\3170\276\022B\262=;[\026>6\207\263=&\t\301=\260\033\202\275Z%\214\2754\204\223\275\330\271\366<\224\263G=\306\212\365=\n]:\276\242e\346=\362DR\276n9\364\275\312\272\244=\334@\024=\200\320?<\037\035\\>+\362.>\263\3244>A\326E>}>\026\276l}\\>\352\035\242;-h\312=\006$\264\274\360\205\207=yjv:@iu>\371\002\217\275_\034\013>\002\335\367=\372\323X>..\274\275\030\2114\276\035j\016\276K\267@\276\000:\204<\':G\275\2376\251=\302TY=@6\027\274j\205(\275\003\234\032\276\265d8>[z\003\276)X<>\240\346\034\276\272V\036\276Y\260j<\240\303\026\276\210\016\215<\"\204\207=\\\034{\275s\033\177\275c\365U\276[\000F\275\3117\310\275\204\224\027>4e\001=o\211\021>\362\230\016<g\366\034>\001mI\276\322n\307=)\0335>N\rC\276\235\3570\276\376\016\202=\236\323\353\275\271e(>>\027\362\275|\241w=\177\255\n=F@\260\275\264?\240\275\234;\">\366\332\212\275\231\325\275\275mI\364\275\2732\007>\271\315C>\212\224\004=\376K\315=F\347\277=\035\377)>cb\020>m\033\334\275\000\035\247\274\036\203D\276xE\337<\013e+>\376\021\"\276\265\201I>\264H\027\275\224\260\024=\352K\312\275\000/\341;\270Q\002\276\020{H\2743\211\017\276\3054I>\306\232\214\275\242R\375\275^-\340=-\3437>ICS>\360tw\275\321\301\037>\037xJ\276\244\213P=\202\350/\276\246\365\300=\250O\217\274\330E\010\276\344XB\2751\324W\276\224\260Y\275\324&\014=\024\245\000\276\272!\320\275`\331\277<\033\3362\276\014\252\216\275a\002&>\226{\277=\374\032Q\275\362\322\302=\232\326\261\275\202C\340=\345)E\276\177/)>R^\242\275\020\253\006\275\327J\035>.\217\265\275O\3553>\0005\343\275)\316\032\276\303\346\023>,\223P=\332\004\234=\314\347E=@\327^<\234_\370\275\0172\330\275\006X\004\276\200\353\n\275I\3713>\236:\217=sv\r\276\205A1\275$\372\017\276\026\362\366<\266@s<J\\\302=K>}>\027\312\202>?#\232\274\354\351\003\276\307\020?\2766\211\214\275z:->\206#\361=S\315&>\2243\030\276\304F\030\275\331GV\275\2037\204\274\264\240Z\276\022\206\377=\335\177\022>H\217\025>?6\273\275_\213\251\2758m\341\274\3362\371=\034\233i\276m\3351<\315+R\2758G}\275@\330\200\273\335R\206=\350\243\221\275e\221D>T\310\220\274@Q)\276;x\322\275\t\300B>\325_t=RH\267\274\271\r\014\2760NM<\2149@>\272\362\227=\352\325\263=\224\257\005\276X\032,>\t\216\357\275\204T\032>\206\247\300\275f\375:>p\260N<8F?\275#\250U\276\352\265\347=\224\225)\276\270\204\246\275t/\213=\345\347?>\251j\333\275\256q\345\273\325k\370\273\374f\007\275\251Jq>\021\\\326\275:f\275\275\3341{\276\225^\336\275\275id\276K\234\373\275x$<\276\315\037\255\275\022\341l>E\027\241\275N\2115\274\250\332\036\2761\272-\276\242\205\355\275|\252f\275\267\333\017>z\221\016>1\305I;WC\217=#\353\343\274u\343X>g\0348\276O$\241</\330?\275%\371\007>x\026\215<u\327\037=\235P\213>>S\036>\036\236\245=\267\365\n>\372\253\006>\323\222\027>v\244\347<\307\212\021>z\370\360=\001t\032>qEq>BiG\276\034\306,>Od\254\275<\273-\276\322\201U>\375\355\352\275\026\201\351\275\271\377\034>\024\311$<\002\310\375\275\221\342\013\276\035\251\003\276/\025\005\276$\"X=\017d\000\276\001\270\037>-\344\270=\220\007\023=\311L\\\276\264w\014=\t\nr\275\206\017\010>\361\336\211\275"
      }
    }
  }
}
node {
  name: "dense_1/bias"
  op: "Const"
  attr {
    key: "dtype"
    value {
      type: DT_FLOAT
    }
  }
  attr {
    key: "value"
    value {
      tensor {
        dtype: DT_FLOAT
        tensor_shape {
          dim {
            size: 64
          }
        }
        tensor_content: "\272c\257\274\366+\257\273\254\261m\273?wl=\t\017q<:\177\272=4c\034\275MU\354<\317Z\t\274\370AD=4\336\216<\331 \032<q>-=\344\r\250\273vL\304\273\261#\266\273vW\262=\3572\257\273Y\2552\274\332\363\311\273\366\222\203=*a\243<\370\030\376\273\000\000\000\000\037\356l\274\303d\267=D\224\201=\000\000\000\000\000\000\000\000\312\200e<\326\214\010:\246\001\226<\000\000\000\000\000\000\000\000\217%\234<z\322\216\273\321F\200:\177\334\343\274\232-8;d\234\377\273c\215\2778\225\370\313\274\367\335^\274D\351G;\000\000\000\000q\214\223;\001X\264=\351\324\214<\356\341B\274\370(\316<\'\r\323\274TL\310=\000\000\000\000p\354\210<\000\000\000\000\000\000\000\000\311\251\242=\177\367\217\273oQ4=DO\253\273\363Q\235<\017*L\274<\205\225=&\005\002\274"
      }
    }
  }
}
node {
  name: "dense_1/MatMul/ReadVariableOp"
  op: "Identity"
  input: "dense_1/kernel"
  attr {
    key: "T"
    value {
      type: DT_FLOAT
    }
  }
}
node {
  name: "dense_1/MatMul"
  op: "MatMul"
  input: "dense/Relu"
  input: "dense_1/MatMul/ReadVariableOp"
  attr {
    key: "T"
    value {
      type: DT_FLOAT
    }
  }
  attr {
    key: "transpose_a"
    value {
      b: false
    }
  }
  attr {
    key: "transpose_b"
    value {
      b: false
    }
  }
}
node {
  name: "dense_1/BiasAdd/ReadVariableOp"
  op: "Identity"
  input: "dense_1/bias"
  attr {
    key: "T"
    value {
      type: DT_FLOAT
    }
  }
}
node {
  name: "dense_1/BiasAdd"
  op: "BiasAdd"
  input: "dense_1/MatMul"
  input: "dense_1/BiasAdd/ReadVariableOp"
  attr {
    key: "T"
    value {
      type: DT_FLOAT
    }
  }
  attr {
    key: "data_format"
    value {
      s: "NHWC"
    }
  }
}
node {
  name: "dense_1/Relu"
  op: "Relu"
  input: "dense_1/BiasAdd"
  attr {
    key: "T"
    value {
      type: DT_FLOAT
    }
  }
}
node {
  name: "dense_2/kernel"
  op: "Const"
  attr {
    key: "dtype"
    value {
      type: DT_FLOAT
    }
  }
  attr {
    key: "value"
    value {
      tensor {
        dtype: DT_FLOAT
        tensor_shape {
          dim {
            size: 64
          }
          dim {
            size: 64
          }
        }
        tensor_content: "\200\007\032\275\375\212#\276\245\273R\276\351H\312\275~t\337=\255\277\321\275\3160\270\275;\252\036\276\000\306\240\275oM<>\246n\251\275\371\272\253\275\242i\316\274n\320&\276\014\020\275\275t\212>\275d\3759=~e\036\2768\036f\275\251\361\001\276h\306N\276\237\r\321\275F\001m\275O\330\374=\240\225\212=\000\020v9|\214K=\333\341Y\276\357\356\214=_\345\010\275\215\361l>\243\224\277<N\374S\276\254\202T\276\305\035+\273\242\244\230\275x\352\234\274\374^S=\227\313\036\275\ti\330<s\210\016\276]|F\276q\005\">\242\004a>\025\202\364\275\004hC=\260\221\034\276]\211\016>z,i=X\362\n\276\023P5\274\335\257\037\276p~\333\274\016\025E\276?\225R\2738\240.=\230\235\033\276A\224\352\275\212\r\314\275\312\2604>D;Q>-\3435>\250\240\333<t\031N\275^xZ>\317\212$>i\372\304;0K\337\274\346v\266=\037\021\374=T/C=\200T\245\274Y\200\002=HO\221\275\266p\267=\036P\250\275\036%X>\004N\360\275j\356\212=2\215\216\275<\036\t=\267\366\216=\372>\347\275\270\313\255=GYL\276t\273\277\275\363\003;>/\202\020>\222\371\r\276juO\276\324Ca=x<\345<olU=\266\212)>\307\321&\275\300\237O>\277\203\005>\335\340D\276\026\024\234\275m^9\275\327\261)>\022\343\010\276\323\3450\276\336\203\316=\340\361\375\273\022\260\320=\320\312S\274\246q\002\276\245\373\021\274\251\323#>\320\250\374\275\360\236E\275H\211\377\274 \210\205\273\357B\225=\2326!\276\330xw\275\231\2563>\032\222\330\275\344\227=\276\230\244\231<\317\365\037\276\314[O\276Q\013K\276\251\374\367=\240\335\014\275\263\303\356\275\342[\263=\250\307{=Vx\233=\202W\204=\026+M\2765\345\007\276\254\317\236=\235O\206\275\207!\r=\'WF=W>=>\265b5\275\003\235\235=Z\224\013\2768\262[\276\221SL>\277\265%>I\213\231\276\334O\313=\202\2175>(/e;\354\266\202\275PS\346\275\001c\211\275\020\037\203>\246\210)\276\240s\251;\254\204~=\003d0\276\035H#>\304tc\276\261\353{\275\353\250I\273\004?\023\276\205\021F>NB\007>\336B\315=m$B>\242>\214>\021\324\340=g\032\261=\006\212o\276IJ\350\273\"\203u>\3062\016>L\200\341=\324\220R\275\335\341\r\276\217\253\230\275\351P2=\240gT=\016k\317\275\333~B>M\351\273\275\363l\204\276\211\354\207>\234\356\006\2767\\\\\276M\177o<0R5\276\303\215r>\245_\325\273\224\2769\275`Sc\274NQ\263=`\273\324=)\225I>\345\321\212=~:\375=\335\273\352=\352\376\013\276\320\'G=K\266S\2765\322C\275\000Z\300\274\034\217\016\276\035\305\254\275\235\241\024>\235\313@\276 \210?\274\022\327+>\223\202\025>4\274B\276\026<d\276\375\337\'>\222\013\352\275\210\312\306=*Z\230\275\221\366\031>.\375\365\274\241\215\010\276\363)5>\370V\207\274j\362\025\274Hw5>\'\333x=\221\207F>\306\305\313=\327\275\273\275s\235:>!\316\204\275\320t\\\275\363H\306=\340\032A\276\306\222\372=c\356L>\030g\007>\225\206)\275\2209\247=\n\314W>\000s\345\272\0324\263\275\304\236\037>n`\210>B\361w>C\224Q=\336f3\276\006w\373=2J\246\275\005]%\2746g\374=o[\210>\221>\022\276\263\336\377\274\314-=\276l\334\250\273k\235c\275#\256\007\276\030\275W\275M#b=\031}\242\275\310\204\013\275\256\254\374=\266 />)%\232\275?\'\251\274\211\306P\276\204\244<\276D5\222\275Bt)\276t\320\200\276\204aE\275\2265\327=\010\267\252\275\216d\033\276\337\237\336\273 48\276\3240\230<\027\\\027>0h\352=k}\010>\232+\232=mk\227\275\256\260\224\274~\226\273=\323\270*>\262\214\374=\200\177C\272\263\331\255;0y\010\276*\246\213=\36475\276\302\017\253=\255\3412\276\351 \240=\200gI<a\267\236=\177y@\276\305k\242=.\350\013\276U\354i\2764\342S>v\351X=\250\014^\276\254{\301\275uP\026\276\253k\313\275z\227\232\275+\3268\276\314\267$>\353\273\027\276J\223\204\275\354\252\200\275\276sc7q\373\211\275\002G\327\275\014if>\301\351\313=\177;q>\322\351\014\276\316\245L>\254\230\007\275D\230x=\340\027d>\255\0001=)R\277=p\336\257\275\232\326\232\275\332f*>{\242\243\275\323ZM\276M\235n\276\014\203\020=\211\312\030>\374\225\003>\026\202\237=\311<\337=\201\335N\276\037~\010\276r\224\200>\341\312H\2761\347\017>\034\216\177\275d\370\323=#\024\313\274\361\312;\276\334W\r\276\254\224\020>P\033\230<\274\251\020=\310\302\321<\257\215B=Ub\310==Z\312=3&\211>\215\257V>\366\037\312\275\315\0137=\003W\227=c\303=> 6&\276\250</\275\262\277\004<\025\223\367=\007rn>\224\362\252\275\031F\r\276\277\206\265\273\347W#>K\243\032>\277\245\025>g\025C>Buy\275j49=\000\360\235\2700#g\275\260F\313\275n\2108<`\312!\276;\030\027>\211\373\016\276\013\267C>\017\315M\276\353O*>:\010\345=\373u\'\276/D\014>\340^\356\275\325\211\257\275\263\311U\275\33478=\330x\267\275^2M\275\261L\243\275\306\004\354\274N\227+\276pI\351\274\202\242\262<\315\n\205\2760\324S\276\354\221\t>\245\313_\276V\'\231<cV\263;\314\241\\>\255.\000\276I`\333=H\304\256<n\366\302=\364\242#\276zR\036\276\253\321\332\274\025\021P>\366\264\224\275;B\017>_+#\276\245&\023>\300\363\265\275L\032Q=}\024!>\322\264\245=\347K`>\027\271\024=\271\206\034>\356\362\023\276\r\0324>\311+\201<\242\261\222\275\021\013l=V\245\\>\035\3562=\r\020\004\276\014\316\201\275\000\223r\274\246\034V\274\271\331\212;\325BT\276W[\237;\214Y==0\313\016\276\345G\246<&\356\315\275O\3253>\364z\224\275[\032%=\231\203\372=\326\377\350\2748_\323\2751\205\327\275g\355E\275\362\367\261=\014\300B=\217\024\302=\036\264\002>\354\331*\276Tm\035>t\211\027\276\363\244#<\241;J=\276eQ<\240c9\276C\224t>\2421l=\350\336\002=\374\3760:j\232\366\2755p\"\274\224nc=k\221\255=/S\210>rp\344\275\332\177I\276\236\202\021>\374D,\276\230U\000\276N\303\355;\022l\335=\310{\322\274@\213`\275Q\344:\276\263\263\206=\330\363\200>\020\375\313\275T\204~=\264\320C\276\244<\303\275Qk\233\274b2\351=\262\017\023>/\036r>#\024r=\257N\236\275\342\002\017=\271W\016>\010\021\366=,q\224\2758\"\243\274\347\002X\276HJ8>5O.>\027y\254=\031\346\006<0+\234\274\373\3423>\316\025\301\275I\337n=i\350f\274(\222T=#\315|\276\312X\312\274\261\340r>\001\260h=\356)C\276\032\266\022\276\000\276\347\2748\345\337=\034[\000=\360\276\361\274\257\3751\276\255\317#=\207\347\026\276\370c%\276Esj>\241\200\006>|>2=\260Hf>\027\231{\275\233\302Y\276\026\343?\276<,\322\274\225tD\275\274\010\230=~\177\324=\247\014t>\353H!>\177\331\247\275f,\027\275\320\rP>\314\330\310=H<L\276\0243`=\367\001;>\035@T>\367\341\016>1\350\203=\300\022G>\233C\243\274 \222L\275\254>\035\276k\356B\275\320\323!>:\207\342\275\340\235\000>\305\2072=G\006\244=\200\320O>\244[\016>+@\004\276\24628<\340\254\027>+\361I>X\362(\275\312\341m\275Z~\'\275(r\024\276\265U\314\275P;\330\275\2007\332\274X\301<\276\373l\030>\356\352\247\275\327*\272\275\013+&\276x\215\263\275\231r\004>s$\212\275\004\372_=\036\207\344\275\260\232\345\275\036HZ>\022[\333\275d\247H=WD\">\222\345\356<\302\360\r>s\344\317<,%\214\274\240b\177> \t$\276\014\370\300;\005p\350\274\373\006\'>\r\200\336\275\006U\262=$\267K\276\314\2119>s(\364=\2207\016\276\325\3629>ae\361\275\331\370\300=L1\373\275`h\022\274\201\365P\275[bI>\372\201\243=X\372Y\275k\257\232\275\001\r\205\275@\240\001>\336wi>:\242\332=\321\251\321\275\272B\361=\261H9\275[+5>#\031u;L~H>\207\323\016\275\356\247k>\206\004\220=\314\363\"\276\'\376\347=J\356\004\276`\235a\274^1\303=+1\033=\362[\323=|-\004=\246\261\177>0=\003\275\360\010\232\2743[r>^\005\033\276\275)\306=.H\025\276\000\177p\276\356X;\276\364\231\327=E\372e=\013\240J>}\203\010\276\010\204\224\275\317\314\222=`\203O>\2115\335\275\273\332\037\276\214\037\204>\340H\265=\032\320x;\274!V\275\215\351\r\275\343\207\005>\201uW\276\010~\304=/\021\320\274\351\315O\276\236\350\262\275\025d\345=\306\326\200>\377\023\260\275_\273\222\275wb~\275\272/\002>\177\316%\276\371\013\032>U\277\230\275q\251\030>\306GJ\276~\311S\276\305cH>k\343\006\276</r>\211\212^>\'\250\326=\020\243z\275~\006\347=L\207~>h<!\275\334\3265=#\177\013>\272\230\265\275|\352\306<[\231<>{\261\326=\373\n\033\276\317C\202\275\0162\004\276\224\031\271\275\2519@>\375\240\355\275\002\006\257=\257/:<oo~>\274\222*\276\200\220Z\275b\341\220=\317A\322\275\r\345I>|y\352=_\004\267\275t\031q\275\226\005\"=b2[> \212\305=\250\240\376\274\002\3026\276\250\252\333=Y\375\305=\\\003\360\275:<\317\275\007\232\356<=\235\332\274\360\373\340\274AeB<\230\360\032\276\007|7\2766\023x=t\203\321;\367\306\311\275\2661\357\27503R>)d\310=\350x\005>2\177\207=\331R\356\275\212\322\277\274\325~\232=\320\242\302\274\360\370\022>q \255\275\311\223\\\273\314\272\222\2754\036V\275\322h\237\2757W\026\276?\320\204>S$\246\275\337\366\217\274\232bV\276\241\033\">\236r\332\275\311\036\255=\223\2002\276i\361\252;\273\031\256\275z\352y>\300\336\324\274\264OD\276\305T\365\275\005\265T>y\"\261\275 \304k\275\002\256\232=\026\224\324\275\007\010\276=\333\tF\276H\270\364=\235T@>\001\315T\276\364\177\001\276\205\271_=l\344Q\276\017l\342=\350\204\252=\033\306:\276$)\242\274\205\333\230\275zV\330\274H?6\276\324\017\010\2762\346b>^\304\202=0e\231\275\025C7>A\3248>\240\213S=Z\0327\275X\006;>\017\340\235=\0343\032=\336H\340<e\n%\275\334d\004\276\223\202\321<o\177I\276\215\3601\276\217\333\203>\340\206\326=\335\325\264=&\326$\276\334z\003\276b\017A\275z\010\233\275\274\022u\275:&j>\272\020\315\275v\004N\276\250\366a\275_\343\223=\\\270\212>u\031\210=\251\367|>tj\207\275J\353\211\275\367J+>\370\202\241:\330\216\244\274\031\210\320=\033[\005\276\274\346\221\275\266PF>]N\220=\027\024\206\274\240\033W\276\3115!\276\240,L\276f\202\320=\230\343\224>\310h\234=\365\324L>\243\325\000\276\362\201\261\275c5\027\276\216\347\321\273-\303a\276*\315\027>\177\317W=g\2360\276\216\n\351\271h9\253\274\245,\310\275\324\363,\275>\264\372=\274\357\"\275`<\244<\032\364\330\275p\364P\274\323\243\331\275\220\014m\274\2733\023\276a\252\004>p\232\024\275\262\254C\276`\360>\275\306\036<>\320\333\037<\373\257O>\304\007\t=\226{@\276d\002\035=\206\213\002>\\\205X=9\374N>\315)(\276P\030\210\275 \342\366\2732\241^\275L\323;\275l\272\252\275L\257\014=\210\332\215\275\320\306~\275\216k\257=\225\3328\276\362q\254=a\342U=N\216\221=f\250D\276ZR\307=\222F%>\267\340N\276\206\321\016\276\"A\017\276\261>\250\274\024\017\006=@<\033;8l\021\2755\376\361\275\362\307\'\276F2\245=~\355\210=\207\327N>\212\353\032\276\235\304P\276c\277\026>\316\025\273=K\216I>\000~\361:\366\264\334=T\340\000\276\240\364\342\273_\325\037>\\x\n\276wf\022>D\0046\276Rx5\276\222&>\276.\215\235=6\026\337=\177\200E\276\242H\304=%59\276\2464h\274`\334\227;\221\2376>\316\'\310=\334Y\245\275\350\302\343<:1\216=7yQ>\032)\235=\224Ge=\2600\300\275F\273\330\275\"\004\330=\251\207K=\032\331\003\275n E=Z\026/\276\026t6\275\347\325Z>\202\351~=TV\324\275\200\\\260\274\307\233\300\275T\346\032=p\217\347\274\267\272\247=s\025\221=`V\026\276\r\003)>\306\301\300\275\'\351\205\275\210\316\370=\227\313\377\275\343\306\r\276F,x\275\n\224\277\275\226|\216=\232\266\355=\332W\311=@\247^>\004\364_=\235s\030>`\333\207<\3117<\276D\306A\275\341?\033>\314\341^\276\236\010\346\275@_\236\275)zY\276\n\221O>x\225\316=\340\261\320\274j\321\341=2U\266=\351]|=\370\2329\275(\357h\275\244\037\246\275\276\372\203=:3D\276\211q\023\276\223$\006>\376\251\222\275\005B\333=o\027\003>M\027\266\2754\302M=\320\034\213\274/\326&>h\361\246\275\"\212\355=\324\212\037=S\3110\276\034gG\276\361\305\351=\314\000F\275\003\333\026>\0221\331=\365\226\325\275\000C\373=T\033\357\274\322\333\337\275^p\004\276YN=\276\220\266\343\274\217\020\025>\344\322\253\275\277\371X>\376$\315=\346\177\277\275\313r\302=p\3562<\277\353Q>9\305S\276u\214.\274\232\350\235\275\010\231\207\275\301\022\007>\203\265a=\226\204\303=`\002\241<P0\201\274e\214:>\210\004\375\274&\324\307=\020\260H<\357\251,>\345\347K>\314\032\323\275H+\307\275@q.\275;\345\027>\000\266\351\274\345\325\017\276\205\302q=\020\026w\275l\304\'=B\355\235=\n-\354\274\230\201\272<\210\271\333\274>\302\263=\240]\262\274\003\223m>\n\227z>\304;\307\275\346q\310\275\253\014A>{\234\256>\027\275\004=\336\003E\276\333\256\233\274@9C\2753\353 >\346\363\317\272\r\0379\275\252\324\276\275\300m\n>\337\t\242\275\2752z\274\204\365)=U\377\024>\330\337T\276\t\362g\276\247\375a\275\274= \275\306\374\353=\205\371\000>AU\335\275\260 \247\275;iQ\276$\235\251<G\244.\275H\316\216\275Jw\223\274`7\010\275\000\362B\274\250\333\214\275\234Lg>\333@\334\275\241\274\007\276\370\2255>\220\342;\276\"y\363<\037\304M>\271[\300\275\017\262)\276Q\372.\275\326TF\276\'>!\276\014\314\212>g6\302\274\003\335\253>\322\376Z\276EQZ>\234Ki=,\331\320=\330>3\275N\261\213=2\316\362\273\214:\260=h\032\252>w\351\271=\367=\233>j\354\233=.\324G\276a\241\\\276\245,\030\276\341L7>G\215h<\200!\231;\\\334\003\276\343\214N>\361F\020\276\307\344=>@\342(=3\220\032>\315\321)>\340q\240\2731X\017\276\326(\312=\350\205g\275 \n\004=\216\033\242=\375\211\001>\014ek\272\t\306\360=\n0&\276\353\377\"=\336\\\035>\365\030]\276-Zi\272c\372:\276\253I\000>\214\314C\276\300\206\035>\221\336\355\275OQ\220\275\346\334R\276\235U\033>\000\222\016<\034\327G=\311\366\360<m\004Z\276 \355\345\275\330B-\276\233\021\271:\204\364)\275Ts\004\276t\314\t=\316\217U\276\357\316\350=\305\2415\276P8\214\274pb\314\274\272\273\034\276\014YM\275\345\347\010>\257hK>\014/\016\276\250(I\276E\344\334=\250\247\374\274\314\256?\276\231\371\377\275\221>\\>\252\261\212\275\036\037\244<@|%;\n\227A>\230\345\220<\305w\020=\231O\270\275\314\205@>\021\313[>s\276\027>\314\314\223\275T\354\333=\306\243!\276\317\343:>\374\250V\275B\254\203\275t\235\030=\314\260$>\223t$\2760E=\276\363ld\276\325\322\006>\363\371\027>l\210\265=y.N>H\000\327=\273\020\222<\232I\340=\261\210\214=6q\034>\000\017R\274ZI\343\275P\360N\274\256h6>\357\366C\276\334U#\276:\371X>\370\234\002\275\300\037\027\276h\213\317<\273$@\275\004\232\033={\0205>\217\231\362\275\177\177\343=*j\241=v\365\303= \313\231\274\304Q\003>\007\304\001\276\210C\010\276<\016*\275 1\221\275\027\370\267={\341\022\276\227\200\364\2748\213\277<\034\255j=\274\315^>+\200(\276\320{1\275vS7\276\205{R\276\312\256\371\275>m\027<\025\307}\273\344\244\024=\212\031\213\275@\265<\274\317\232\276=\213\201\235=\225\351=\276\264\306\032\276\230\327*\276\366\240x=M\220\277\275\326\004Y>\362t#>\264\3518\276FcO>P}\t\276Ne\340=\0300 >SA\317=\312\360\206>V$\017\273\016\360&\275\023:\370\275\352\032\310<\305k\035>\352\217\362=\326\003\252=\265\260\216\272_\237<\276\330\323\341<\234;C\276\000`\034\274K\327X\276\272\312\355\273\334\260\201\275\320\353\033>$];\276\374\305\007\275S\306\235\275\216;\317\275Dg\316\275g=N>\267\224&>]\371\225=0\211N\276\345\244\243\275\266J4\274\260\014\370=\356\351\021>\260\253\003<l\215R\275\345\275g=&\243\307\275\306\243\305\274VQ\007>I\335M\276o\231\006>\312-\342\275a\301\203>Q\356+\276\331\310N>\2534:>\307\362\r\276d\017\024\276A2\312=@3\010\276h/\217=7Q\001>\203\230@>}1\337\275\274;i=\325\310/\276\006\037C\2735\310m=\202\036\224\276\377\"\237=4~q\276@\211\233\273\350\020\207=-\367\037>\216\330\022\275\005\350f\276\010\344\273=\3714F=\n\342\022>\350\226\010\276\205\320 \276\312ag\276)\305\t;\003\t\'\276a\3120\276N\'Y\275\363\231\343=6F\225=J\230\257=\347\314\032>\200\306\253\2737\033O>\306w]>\2441>>\344\216*\276\222\010\374=\027\352G\2757\204\020>E~\025>Gr\010>\326f&>\234\346\226\275Cz\336\275?N\243>\000y)\276g\225\002\276b\330e\275\010Z\\\275t\242]=\016\022\221>\'J:>Y\032o=^A!>\344\006N\275v\314:\276\211K.=\312\355\343\275q\257V>\000\265\245>4\006\t\276f\322\025;A\0236\276\255\241|\275\372\315\272\274\235;4>\215\205\025>\244\260\360= \212!\276\266t\372\273@-{\275\226\343\233=\007\0137=Q\rW=\310M\320\275\273s\364\275\003x\354\275|I\037>\354\002I=V\036\006>(\317O=4I\323\275\rv\016>\323\351\037>\371\"\003\2763\376\006\276\2025*>L\347N=\306U\230\275\020\034O>]2\236=\032!S\276RL\327\275`/\261\2732\235\001\276O\274\354=\237%\323=\212\3154\275\020\003\321\2734\316N\276@\375>\276\000!Z\276\316=,\276\020\335T\276\250r<>\017\334K=\200\246\t\276\222I\232\275(Ew\275\230\000\027>\004\227\252\275\036[|\275\226:\236=\210.f\275\003(\023>\205\313\021\274\246^\034>\031Y\t>\007l\362\275\200\257|\275\020+\303=\016\253\211=\365^^\276\325O\r>\317\375\206=-\2741>\330/\220<7yE>\r\353(\275\342\2610>\264\277d=D\032\257=\036\377.\276LRr\2757\273\010>\232\267=\275\250\006\316\275\363\2654=\263\010E<\233\214\033\276$\300\207\275\243I3\276\301\035#=Ao\000\275*\216\353=y\251\347\275>\271\327=\016i\313\275\247\253\241=F0\232\275es\344=\300g9\276\312\315\372=\370\361\352<\334y\221\275\317r%\276\246gD\276\340\200x\275\235\267\026>\341\263@>\"\245\230\275\232u(<4\346\320=\004\301[=\223~5\276\274\261 \276\032\323\036>\000T$\2727\003O\276\365L\'>je\344;k@\025\276V|\356\275t\2620=5\350k\275\323s\275\273\256\366\263=&\213\253\275d8o\274\271R\237= \021)\273>\2179\275\215\023\001\276fh\256=\241td=\326\253\'\276\325\337\026\276!i\320=\177K0>\035\243\310\275\263\265\344\275b\213(\275\300\020\245\274`F>>i#\026>xWZ\276<\276\n=\226n\351=@\344\323\274yz?\276\n\n\347=6I\017\276\010\344\301<f\373\354=\216\335\031\276\232\361\201=\226!Z\276\210\372\027\276\354ab=\321\371:>\326\374\366=\251\234&> \321\232<\357>\t>@:9\275/(Y>\n.\311=\352\225\216=>\031\272=\336\356\327=q\361G\276 \262\373\274\205\0364\276\266\360\352=]\370\000>`\352\355\275\371\361#>`\332\206\273%\3754>w\352&\276L\312@=\000b\315\2714\340\005=\0355;>5\211\\>\325\264X>\357\337(\276\324\304O\276\326f\211\275*\301E\276\361\276\375\275`\215\304\273\203\256\022>\215\026K>\020\251\n<`-\326<\312\330\213=0\254\366<LJ\032\276%\247\312\275\254\010\001\276\220v\265<<\236+=\032_\350=\333\355Q\276\334\224Y\275s\007A\276L\233M\275tyI\276\327u\253\2750\301\310=`\223\315<\360\266.\276h\023c\276\372:->\303\254\357=~\255\024\276\033\345\n>`\2617<X\3375>V\340\241=]\241\t>\200\342\303:\2544M=\272\3417\276\333SU\276A\334\200\275\034WQ\276\3203`\275f9\n\275\353rt<\207i\333\275k\351z<\337\n\315\275\320\254\306<\300\341/\275\214\201\035\276\355=,\276\223HJ\276\277\350J>\010\0317\276_7G>\314\020:=.x\332\275\215,\032\276XW\370<\3417\266\275\306i\304\275\343\225\355\275}pB=L\033\013=\236\025\264=\362\367)\276jh\317\275\226\302\343=`WO\274\321\371\032>Pf\306\275-\020\000>;M\031\2751\3522>\276\245\010\276\235\356\365\275\210,6\276m\'N\276$\240\367\275\026\336\201=\363\235\374\272\207\200[\276\026\361G\276\033\034\302\275\037\345@\276:\352\203=\225\240\224=\370\334\">\236\013\306\275|\017-=F!\377=>\2663>\215\0340>\364xS\276\177\nt\276P\261^\275\253\037}\276\247\253\203>-\270$>\351R7=\335T\035>>\013\327\275\303W\235=\362\244\025\276<|@\276A\331\376=\315\305z\274\0017\357=\303=\000>\032\023\375=\323|C=\203^Q>U\221\320\275\234\240\007\2761\023\206=\377\270\371=\274\024\205<\2323\334\275\220\254\376\274hL\203\274\373Wk\276\213 \273<@\216.\274\013j\372\275F\350L\276\225\036.\275m\3312>,>\200=n\311\232=\367\365U>n\367P>\311\375:>jk\246\275\251O\t>8\212N>\250}9>w\271z>\370Bm\275\354#/\276(\273\205=b\310\026>{/-\275\243\037\340\274\260\"b=w~\210\275\3758y\275\366;3>M\213{\274\266,\243=\261\021D>\000\020\226\274@\031\336\275V u=\000\313x\274C!\201=\316_?>s\036\205\2757\300H>\254\347J=!4\024>\343\272\030\275\315\210\366=\n\230\274=\3022Q=\312\215\005>\242\275c=\001\234\224\275#\177>>\203\325U>\255\3269>\347\324v\275|\230\'=\350\372\205=\265\260\227\275\'\346\037>qB\031>\376\277\372=,\320\036\276\201\261\037=i Y\275\215F\017>\333\320%\276{^&\276.tB\276\034\264\310<[k\262=\320\375\267\274\342\033\3368\345Y\377\275\370\277;>\332a\303<\001=!:\324\022v>\333\200\376\274\346\3608\276P\014\204<n\226\242=\224\205\203\275\247\030|>\007v\272=\273\227\307<\354\006\252\275\354\030w=\025d\026>\225\221R>XoE\275(|\230=\370\331\210\275<\2339\276\366U.>\224~\333=\276\310M\276\232\364\020>\342\274\343=\034d$=\017\266P>\005\\S>\333X4>\312\367\212=/tU>\000oS:\246\334\333=\316<\313=]\264J\276\326\002\354=\212\244\220\275\330\302\332<\246&\360=8o\027\276\362]\371=D\242F=\361\005\\>\304%J\276\275\0224>r^\376=H\211h\275\240\t\250;\353\361.>\n_\235=\263\371\014>Z\346\337=\300\273\000<\213F\002>2\023\202=&}\306=r\367\314=?\'U>&\207\226=\324\2566=\000\276\2309f\212\220\2754\177\234\275\343\215\"\276Y\030)>9\347 >$F\030=~\356\026\276\321~\035>\272\256\222\275\300\0065\275\323~\320\275\310\000\321<\305\373B\276\\\026~\275$\274X\275\334nQ=\273\213\364\275\231\203U\276>2\256=\251.U>FY\370= \270R\276h\351\233\275!\200\003>\362\2126\276f\314\304=i\0332>\304\326\362\275\364\027M\276\3601\377\274g%\275\275\255\230#\276\246r\257=P\307z\274\364\212\230\275<\231g\275\220\316\313\274\261\301\004> x,\274[\"\014>\331\233]>\211\367Y>\217x1>\242\357\252=8\361z\275\372A\356= \214\372\274-\216\007>T\344)=\212\0235\276;%\022>\351%X>\242\2079\276h\244\211\274\313\025N>\2239\033\276\251\321G>\177\252\031>\235\213\016>\200\201\226\275\306\365\330=M7\314\275\233\375,>\315F\021>\334\2301\276\223\231C>0\312\n\274\226\334\212=\374]*\276\020\356\027<\235@&>9cO>l\232G=\256\222\373=\"\242\252=\345\236.>a\303\274\275\274\010\000\275V\216\210=\030>\331\275\364\262b\275\360`\202<+\345\006\276\245\032$>\204\024a\275\225r\">\025;M\276\244.C=\0026\357=\003AK\276\232\026\266\275n-\256\275\215FW\276#z\024<@\347\214;\000\274h;\244\210\272\275\035\220\276=\330\341\212>\202\334\030<:\361r\275\2018I\276\264\nE\276\264\020\361=_\243%>PV9<f,\222<+d\370;X\204\352\274_r\251\274\031g3>\200\223_\274\222\005\032\2769\257q=\010\364I>\231\213\304=&\310%\276\204\206\201\275\340m\267\275-\265\002>\215j?>\023P/=\340\231\273\275\222\t\245=\2409\037<\260^\n\276\334\223\247\275p\331\353\275,\267\005\276i\267\363=?\023\247\273H\214i=B\377%\276\301\0379\275\352\025\206>\354j\212<jr!\275\202\274\241=M\277\027\276\307;\002\276\230\376\032>~W#=\267D_>\252g\250\275\272\257\005\276\257\236\210\275\220\344\212<\204E\274\275\364Qs<\202\347F\274\214\244\366=\215}p>\004\355\304\275\033\302,>f\265V\276\276\267\343=\254e\006>E\214B\276F\326\342=K\033\021>\370\315\376\275\035\267\336<3\002\206>\367gz=\t\007\024\276\033\276\\\276\320\373o\275\263\367\213\276\r1+\274\255\226>\276\2749\003>x\237\326=\371W\270\275a\221\021\276\201\224-=\330m\017>\307u\333=e\246c>\377\260\344=\300.\367<\347\223J\276W\315T>SaP\276\2146\004=\242\000@>[\026\014>P<\">]h#>\276)\265\275u\250@\276\347\022\353=]Zd\276\271!0>\301\354*>\370\240C>P\276\324\275\265\333\206;T.L\275\305\224\014>\214\207\n\275\241\332\014>}\251/>\220,\027\275{\361\222\275\214\316h\274\372\375\351=\014h\007\275p\254]\276\211\345B>\221\357F\275\304Ne>\300#u\276\260\313\200=\224\002\227<\355\376\213=)\301M\275\241\244\007\276\"W\342=4\014Y=\220\222\255<~\342*>\337HJ\275$!H\276\250t!\276\213\231(>#<\006>\302\010\233=B&`=:4\250=\355\3351>\214<G\274\023\372\004\276\204\262\346\275\302\207\262\275l\253X\276V\275Y<)\364\256\275z\"(\276\306\320\255\275`!4\274H[L>\215.o>o\260E\276$RW>\323\375\374=(\251\337\274\255\346U\276\022\377\243=4}\007>\330\374\237<\370q[>e\211\253=\270\341\250\275q\252D\276zA\377=;\336\254\275\354\204c\275\311\332\244<2\0342\276\330\375\213\275\261\342\017\275\222\230\017\275\327\"\224\274gm\335\275\215\302\231=p\332r<x\314\005\276\303\020\361\273\220[\355<\r\261\014\276\371\334\220=.C\231=\221R\013>\376\252\200<\231\006\233=\376\177\020>t\246\006>\357<->\244\277\035\275Y\271\323=\034\304\262=\303S\035>\230\340n\275\350\016\336\275_\337\022>\223\326\010>X\274\033\275+.\341\275l<\261\275\006\274\334=\336?%\276\224\221}\275\320\245\n\274\204;}\275EV\032\276_\324\037>\260\263E\276\261%\034>\326\302\323=\037\304\345\275 \233\272\275\240\020\273;\350\003\250\275\352\'\350=`3\253\273\240\356\366;\235\260Q>\313\312[>\340^\230\274p-\243\275\2517\n\276p\r8<\020\376r\275\217~\001\276~4\350=jN\367=$\356\006\276p\\r\274\026|\t\276\221IV\276\306\r\271=\324\231\002=\271\t?>\r\360G>ji\336=\231VV\276\215/5>\'\016\024>\353?9>\337\'\032\276\rZV>l\265\001=\356\375\307=\032\237\321\275\352\261\202=y\307\017> ]\211\275\177\302\005>\254t.\276\272l\225=\337~\327\275\240\245W<\030\024\224\2752,\353=\254\201\331\275<\275\\=\014r3\275\230\250\030\275T/k\2758k\307\274\344\227\013\275\222\027\215=\261\304\033>U$8\276|H\242\275\356\317\225=\307\364!>\224A.\276\353\302D\276HK\276\275\360%\035<\251|\023>\235\236B>\016\266=\276B\001R\276Nq\233=\364\204b=\216\357\220=d\312\346\275\205\341(>\213Z\007>[\264U>\362\201\021\276\300\242;\276%\013\316\275\253\234\014>m\341\r>\271\312\330\275\023\0231>X\260\034\275\212\357\303\275\312\312\250=\210\272\271<\272a\376\275\222a\270=,\3629\275\233\020\007>dhQ=>\254\331=\3065\341=\273R >\220(\223\275\362;\367=-\204\\\276r\034\021\276\020m\034\275\200\265q\274\244\361%=\310\217\240\275\274\2141=\001\216\n>\221 0>5/Q>\223\301\027\2768$<\276E\275\032>\365\311N>:W\205\275\216\311\207\275p\200\272\275I\0147>|\273\227\275X\356.=Tr,\276/\243M>r8\264\275\232\260\200>\323\343\030\276\322\357\252;\n\312\013=\320A\\<\262\230\347=\217\332|\276\372-(\275!S\213=\261\203\r>\004a\024<@\354\200>2\231\">\314|*\276`\004\333\275A,!>1&}>\253\315\373\275\243&\366=\005\270\034\275\353\267\245<D\261J\275\254W}=\030N\343<Q@\215\275\325;\027\276\\\250\377=\263\326\036\276\010Y\235\275h\347Y\275\250\334;=\022j\027\276\330_\243<\227|_>\370$(>\260\203L>\222\307\330\275\336\346\310=\356\203\352=)\356#>\215K\001>\354\264;\276\337\273?\276)\316\254=\234<B>\262\225\330\275\334\240\371=!\255!>{G4\276\234\334\377=t\204D<\315\362\017>6\216\030>\270}\203>\265U\267<(oU>yU\202>\353\215\345;Z\226\301=\320\010\273<\262\002V\276A\3179>\206\2320>\n\315\361=\303\024M=>\021\221\271m\365\372\275\324(T\276\342\355$>P\371\342<\367gT\276\304s\'\275\3216\006\274-z\030>\\\262\346\275\234\254\326=\255;]\274\251\233\n\276\030\223\r\276\364\235J\275N\322>\276\213\224\024=\"r\267=_\362E>\030\367\361\275\334\321\024\275\246\017\317=\360\217\261<\324\361*>(\026F>)J\256<\222T%>\246J\303=\236\322\234=\034\260C\276L\277a\275P;\225<V\261c\276t\355\373=\351\327\013>\2604\360<\030\230\240\275\006a^\275\311\006\246=\374=\262\274T\362\237\275\035\244M\276\373mK>n\314\373\275Vq\310\273\324\3442\276GI\007>\357H\\>Z\017\343\275\235.N\276\263\322B\275<q\322\275J\346\'\273V \324\275:\367\027>\373b->\240\327\351;\305\211K\276\033\376[>{Ga\2764\203\212\275\2641#=\311\020\355\275F\223s\275\014s\035\276CnT\276\223\334\036>\333\003\026>H\367\265<\255cE>N\270/>5\305\002\276a\353\352\274\0223\223<e\021\031\275e\3211\274\265\0266><\315J>\352\365\014>q\274\264=\206\361\032\276\030bY=z\036\036>W\222\001\275b\211\006\276(\336\342<\302\n\230=f*\367=\347\014\334=i\363\025;\342?\205=\303\014\322\275&\205\320=\301\324\001\276I\245\255<\351#\321\275\005Q\247<\214\307K>G\3566>5\352)\276\356D\006\276\037\272\'=DP\277<6>/>)+\035\276\306s5\276\"\215-;\223\225\236\271|E3>\212\272u>\326\356\243=\"\277G\276\017\303@\275\033Bv\275\333,\033>\241\3478\276\232\354[>%\004\020\275\034X(\276\237\205\255\275\301\337\000\276\266\0333=\372\2722\276V\277n\276\272\364\343<\211\346\016>UR9>\333c\005>\263\020\323\275\342\344S>\324\3307\276\242\351\211=TI^=]\206Q\276K\237\204\275b\301\t>wh \274I\232\025\276\337\022\026>f\3312\276<\356q\274Y\200\036><z\340=\313V/>\316\202\277=C\316\023>\371\253m>0\212\277=\322\275\223\275\327\327\t>\275\344\024>\\\333g\276\364\007\000\276\0348\246\275@\364\225=\376]\211\275\034\037U\275\244Y\310=\272\336\265\275\241z)>L}a\275\212|:\276\332\307\275\274\005\244\334\275\n\034|\276\351\010\316=\034\030l>\004\302\345\275\202\342\221\275\2138\000>\026\005>>\207\373D>,\212\\\276\352\003\337\275\300\007T;\205\203\357\275\340\212\275;SK\336\275\374\2330>tPp\276d\216T=6)\014\275\257,\371\274\321\235\001>\363\0002\276\377A\007\276\216\336\277=\204\030\370=\315\276w=A5(\276G\306-\276o\373H>n\375\231\275L\r\225=\320\001\363=\265|s>\036\311\221\275q\022T>\017\342\023>\352\017\350=\350\2146\276v\0230\276\274\324\276=$\244\321\275\362\342\252=G\216\343\275\257\026\364\274\272-!=\355j!>6\240\003>\261\312\'>*\320M\276?ZC\276GwD\276\362\014*\276L\353\275\275\233\n\353\275\325o\036\275\226w\263\275\030/\320\274\314\004\367\275\321kC>\245\321b>\261\236\345\275\246\264\270\275\304ZG>\245\023\010\276v\035\212=}e{=cR7>\225\260\377<\177\212\321\275\262\321\216\275>W\224\275DS,\276\365\030\304=\203\244\204\275\262\241\204=\206t\221\275)e >\247=\266\275J\301\343\275+\314[=\205\310\237=\032g\"=\3649};\027\326V>\2557|\275t\220\374=\036\227,\276 \310\232\274z\3270\276X\237\013>\010;\327\274 \347\377<\253y\275= \331\345<\370D\346\275t\333h\275W{.>\301g)>\016\363\271=t\031(\275pN\\\274r\2648\276A\221\022\276\327\007\030\275~\201S\276\247\"\023>\240p\n\275\315s\022\276%\247E>\022\006\037=k\230\237\275\316\352\255\2750\247\250=<Y\n=\254z#=\362\027\215=\240\035U\274\313\\\034>\201\202O\276W\342\354\274HG\302\274\264\035o=\000\274\n>\016\344\'\276\314\322w\275h[\216\275\020\"\267<\367\223?\276Bw\256=H\366\313\274J-.=b\036\003\275t\311\005\276\320\311)\276\335[T\276\256\250\330=6\336\215=\010\351\261<\002\021\377=\354-\021=\2032\026\276g\030N>.\371\234\274\352\200\332\275\322\001\363=M\374X=\204\256K=\023\027\264\274@\300\212<\247\034\020>\247\3015>\016\021\361=\213\361\"\276U\376\217\275\351##>f[\210=\243\206\274</\233\251\274\330\034\230=\331\000\316\275_\334\332\2753\345+>~\304A\276\211\324\374\275\375\245+\276\362%1\275\232\354\225=\275\3205=\026\006\305\274s$2>\331&)>gT\310\2758\261\352\275\2705->\235\255\032=M}\361=\233\263a=\024\004\227\275\377\013\022>\346x\376=z*\\\275i\336\375\274\3578\361=\353\3137\276G\367?>P\"(\274\365i\033>\364\310\341<`#\210\275N\244\315<\361[:>\212c\333\274|\356\t\276\205,\255;\310\2224<\022\302\351\275\225\361\n>\372\337\376=\006\361\255\275\010\355\243\275\0325Z>N\3628>\240N\230\275J\372\257=\017\031&>\304`\226\273\327\312\236=W\007\223\275\001jc\275\t\013k>Vcr\275\323\202\227=\215=y>u\036\362=\200D\311\274Z\027\006\276\222\235b\276G\251\000\276\375\253!>\222\320\212\275\201\210\213\275\353\326_\2768\226B\276\210\330\272\275\\q<\2762\027\271\275D\235\026\276p\237|\276h\270\235=\335\263E\276\033-E>m\320C>\225^(>^:\036\276\3456\307\274\310wK\276\261m\304=\376\"\005>\366\321\017\276J\243\021>\361fL>\220\275\\\276\220\020(\276HD\270\274\033\373\211\275\350\360 >V\014j>c W\275,\341x=\262\002\204\275\243\264s=\'\342(\276\"?\240=\347\345\233=J\352J=\244\302C\275\204 \217\273,\263 >&\360<=\\\320\330\275mu\333\275\346\211\261=\240\231\032\275-yc\275\237\326J>,\202\324=@\216\320:d\0208\275\230*\223\274G\300\006\276\306\0265>\331\344Y>\263\353\025\276\224\211\262=\216\371O\276\334\347\025\276\365#&\276\317\362\245\275o|\307\275\337\241\340\275\030Y\007=j5\341=\200zI\274\213\3337>\362ZL>\301\224L>\2634(>\313\001P\276x\317\245=T\320/=\330\246j=]\020H>\337[\027>\373\025F\276\204\333c=\0169#\276\342\365\204=|+1=\214\263Q=X\003I>\000\017\n>_\371\034\276J\320V\276+\216Q\276Sd\257\275\352s\243=h[\270\275b6\215=\367\224Q>\2302\t\276x\037\">\310\226\222\275\376\2752\276\320\',\274*\365\026\276Q\365\010\276~X\"\276\211\330\035>i\343(>\272e\001\276\005\233P\276\002{\257=@q\304=\034\271\211\275\321s\200\275@\224a\275\240*\316;/\263\305=W\310<=\234\303\212<m\372\267\275\023~\017>\360j_<\3621\323\275\312N\036\276e\3167\276\321G\005>\345\352\201\273\377=\020\276EI\332=\037C\307\275stY\276\206\007\332=?i5\276\242\005\222<\277\374\312\275;\273\">5\373\000\276\275i\027\276!\201[\276\'b7=\023_-\276\344\320\007;][(\276\035k%>/\265\301\275\362\360\377=u,8=Ww\204=\243\271\335=r\264Y\276\370\321\335\275\266\263@;\2242\022>\202\330\307=N\356\202\274;\3240=\316Tg\275&\020o\275\216\207\330=*QH\2762\241\'\276\324j\024\276\257\036\254=\234}f=\013\371\324<5O\316\275?\365\016>]\261\206\276\005\277b\276\255~Q>\217x\014>\342\334\r\276\266t\355=\326\264\005=\347\377\002\276>wR>F\344\217>\355u\t=L\270\203\275\351k\326\275\265>\274\275\336:\320\275\323\267\341\273n\2447;V\202J\276\2672%>\2449\204\274IeT>\347\347v=\236v\215\276H\305E\275\352\264\211=\037\253=>DmR>rj[\2765~Y\276\300\262\222\2748\276\326<\342\366\245\275n-\215\2750\252\013\275\016\252\302=\261\314G\276\207\367\367\275\254A_\275\034h5\276\202q\257=\0279\016>\364S\'=\020\255\301\275\032\335\333\275\026b\271\275\362=\321=\237\355Q>\246\220A\276\010\3067\276`\225\313;\316\334\215=\207\214\371\275\320\214\037<\344\247Z=F\332\216=\342*\031\276w\372C>v\017\351=d\373(=\372\013\227=V\374\315=\334\273J\276\317D#>-\035\t>\212\014\257\275\031\226\024>,\033^\275\307<N>\302I\233\275\245.@>\264\025\036=#AF>8\353\276<>\201\273\275\212\223\212=\017\337X>*`\354=l\345&=\307\316\021\276\220\207\272\274p\265\263<L\375 =f\373\025\276\313%\\>v\017\205=D\315\002\276#@Q\276|\372\016\276\2078N\276\202\363\240=\367.\004>3\232>>\255\271\301\275\177G[\276l\302\216\276\360\317V\275\313\030=\276\200\355\325<\267\021\272\274O\205\342\274L\340C\275\335/\013\276Dlg>\374\254*=\0108\'>\235\345H\276j\321\321<\243v\3329m\370J\276\260a\337=jI(\274p\016e\275\270\244/>\226\374\203>Xyr>\000\342/>7\255g<P\260]>5\354%\276\312\331O\276<r#\276\340U\222\275\261\004/\275\036\274\000>\246\032w\274U\337m\276\314\tM\276\344]o=B\3434>\314\330\304\275\210\014\353<pC1>N\377W\275\247\252\240\275x\214\025\276v\345\343\275\221t\310=\244\304{>\003\303\325=\252\246\245\275\254\354 \275\234\004\223;q\306\277\2758> \276\344\322\264=\210:N\276\215\347T\276\236K\207\276\364\345A>;`\355=u\216N\276\010\301F>4N@>%\254\'>\324t]>\206\312\032>\202\025\013\275\000\277\331\273R$;>\341\2433=:\233\357=\360\2519\276\205\206!>\251\014X>\273x\020>\013\213K\276f\010M\276\274\017\025\275\307\374\310=\300\266Z>\344E\n>\205%m\275\315\326\320<\036\340\'\276\204v\334=\344\237r\276r\336\310\275\323\351\223<\224\3262<j?l\274A\212\327=\244e2>\352\355e=@\326C\276\354\221p=\010\265\230\274y\3701>\000~c>/\352\002><1Q=So&>t\373U=|S4\276!\031\006>\364\256\374\275zz\024>\247\307\037\276\336\254\357\275\271T\212\274\2038V>{Z$\2752\225\220=Rh\022\276w=\320\275\324\212d\275\017|\336=\003p\t>\313\237(\2763\274\302\274\206f\210\275\226A\337=\201N\371<\2273\016>\220\\\303=C\217\024=\322\265\201>\023\366\304=\340\034M\274\312E\275\275\"s\024\276\334\303_=\333G!\276#\246@\276\365H\275\275\nk6\276\337.\\>P\016\025=\004X\310\275\033\275c=\343\267p\275z\224\010>\032\302\005\276\001\027\030\276\246\371\376=\204\216j\276\263b\002=Uz\255\274\276\301\n>\023\273\003=#%\016\275\365R\\>\363\005O>\247p\030\276\276\017\325\275\255\314\300\274\004(\213=\360\321\014=\340\374\223\275\000>\316<?5\036\276\320z\204\275\273\202\273\274\364\245\r=b\220\316=\3303\276<\030*\302\275\365\270\037>>\336\262=D_\010=EF\223\275\332 \306=\361\032\371\273\302kb>\265AZ\275\262B\035\276\256\343\037\276M\223A\276\024C7=X\022\215<\325\350\306\275\327\2253>\002\003=\276\016\177\022=\273S\">\n\222\217=\006)\210\274\3732Q>F9\314\275\316|\353==j\240\275\330\375H\276\252\271=<y\337o>\030h\'\276\220\324F\276\224\320\234\275\000\240S\275\202\030\207\2757\276\002>\016G.\276\350vK\276\256\007\265\274S\343\004<.\265.\276V\347\275=\240\261\275<\206r\245=@En\276\256R\200=\201,\313\275\235E\370=g\243\276=HNh\276&\327\355\267\276\023F>\300T\004>\241\\=\276\220\2352>^tz>a\260\244=\270\277g>cNO\276\036\276\226=\314\256 \275\325\203S\276\347\304\001>?S\031>1\372\212=\222\"2\276\000d\017\275\221\324u<F\272q>\324\'\377\2750\377\257=\246jj>2ns;\330\233\016<|\000o\275\211\202b\276\376\033L>j>\213=Xr\305<\200OI;U\004\276=\307\355I\276\305u\334\275\210\034N>\026^5\276\3263D\2761\303\231\275\r\322\377;\210e3=2\342\342\275\342\371S\276{\317\331=\331\372]>}\312\360=\234\177b=\324\035P>\007\0211>hQ\241=<HQ>l\223\\\276j\002\271=\031\236->h\006\361\274\\\231\334=gy~=\214\006\016\274\000\230\256;\376\034\207=\"-d\275jE\017\276\371\373\250\274:/\233=$\217\004>\355\215\205\275YL\030>b\321\000\276\270\315\311=\315g\004>&\n\267=Y\253\345\275B\250\025\276&pr\275,yc\275HG:\276\3400\373\274\311\320.>\225\347\202>\200\020\206\274\360G\207\275!\027\371\275\346V\235=\024\232=>_\216\260<\236r\260=bN\004\276\202\316\355=\200:\267;\3464r>\370\256\016\276\223p\202>\216\227\247=\372\267a\275(\007\376\274@\246t\275\277\021I\276\334\177\254\274t\024\342\275\0301\236\272 \215\007\276x\260\355<\003sh=\203\tH>^\205C\276\264/\177;\274\266@<\374;\227=H\346`>V*#\275\026\3540\2764\300@\276@\210\000\275\210\0348\275mVN\273\232\341\206=\332\231\333=\254\t|\275\222\327{\276\027q\332=\216\270\374<\0047\302\274\311*->\322\274\215\275\3573\277\274\265\222\320=2\236\257\275\023X\n=\2730T\276\345\177\247<\025\"\005\276>\255O\276r\033\000<r.b=\263mG\2753\337E\275k\r\325=\262d\371:8=\301\274wkG\276\270\343\274\275k\311\360<\240\234\016>\365\237K>\245T\370=\032*\216=\267\'\305\275]2z\275m\243\202=k\"\022>M\321\376\273\261\256\251\275\355w\271\274^\304\251=\352\314\024\275\355\362\352\274\353\333\366\275@$6\276\372U\235=\374\034b=\371f\322\275\330Z\344\274\324\260\237\275a\026\301=\3441}\275P\250T\274v\333\021\276a\027\242\275\255\n\030>\350\367\200>I\022\007\276L\261a\276\227li\276\036ZO>\242\322\266=e\321Z>\220\220\336<\242\324I>\247\277\010\276\365#\302\275\321A\t\276x}1;-\001\317;[b\353\275-5t>@Z%\275\306\032\372=h\t\331=\200Z\254=\332\340%\276\325\257+>m\204\"\276\355nI\2762!\031>\261\004p>\037\324X>j\254/>4\232\020;\340 G\276\362\224\232<n\245\210\275Z\021c>\351VV\276\002A\364=,~\347\275\326\3464<\304\332p\274\324\021\004>\034\340\253=\236\007\237=\000\377w\274\366\257\006\276\327A\221>J\255\266\275\250\301#\276\256b\216=\000M6\276J\246\257=\224e\211=P\026A\276\274\266\273=\246\305\234\273p\245:\276h\rY\276\033r\310=\227eN>D@\204>\336\315\025>\004[&\275X\371(\276\267\204\213>y\273\301\275\356\027Y>\257d\200>\366\343\261\275\333\302V>\260\200\013>aD\013>\34493\276\266\023\212\274|I\013\276\304\230\362\275\360T\007\276t&\243\275\\DY=\363\r\035>\273\227\302\275\314Ik\275\370\342\217<#_Q>-\3733>\240\272\005\274\304L.\276t\257t=\2000\355\274o\355C>\255V4\276\237\272%>1\n@>\330\020\323<j\246\315=\304\242P=\264\323\024=\302\267\246=\344Q!=\236>\025\276\364\216P=\237\377\022>\332\305\354=\215_$\276\200\014Y\276\361Y\030> \361\257<\030\320P\276\304\212\224\27580$\275DEO\276\341\210P>\260M\211<$Rk\275\250\201\346\274 YX<\377\375\323\275)\312-> \027\323;!_\021>B-\234=\003\366K\276\013\264<>\306\261\260=\340\250.\276e\337O\276\325\333A>6\335\336=\237,V\276\340\236s\275\204\372\244\275\322}\201=8$\352<o7[>\304\037\035\276\372\254\337=\243dJ>\316\353\372=\304\260\025=\301&\002\276\226\350S>\235\342C\276o\357.>\233_\002>K\215\n>\367\331\325\275\360\236\241\275\rmy>6f\r\276\231o\022\276\020\375\323\273\305\274)>!\270\323=y\216\300=7%\340\274\000qi\2753\"\'\276Ep\034=\022\210\215=kze>\024Xy>\365bI>\367\243\002\276\222[\231=\013\0064>P\265\021\276 D\361;\216\200W=\\\025\226=\273M\033>\337\304\021>\364\253\013\276\233\257<>*2\023\276\027\3312\274\265\257\351\275\355#C\276k\254\013\276d\236;>\306\016\031\276b\254)\276\034\036Q\275\205\3208>\003`W<\024ji=\010y\363<P^c\275n[:\276\303\345$>\342H{>\240\376\210;\t\342K>\315\370\305\272\205\312\003<\373\375\223=\303\337\014\276Y\221\203\275\023;\357;\373\352\002\276\000\225\260\275[\204A>\356\2049>\204R\014\276+\026\300\275^\303\316=\254[V\276\257Z\336\275]\376\365\275R\347\216=\363\302\024>\234\206\'=(\355\353<i\216\364\275\320I\\<dZ\'=\205e3>X~\206<\316?\027\276k^/>\200\245\020\274,\375_\275\034\3347=\316V\204=\021u\014>\373d\372\275\001FN>\333\317B>\200\247\372\272b\002\206=\302\247\212=\221\242L\276\367\002T>\321\025\022>R\236\372=X\307\353\275\256&\277=\200\216\373\273|\372\014=\202\254\231=\201lI>J\374\254\275\334V\371\275?\305\032>\260\223\037\276\r\3205>\327H\026>Z\320P\276e\257\006>\254-\036=\356&E\276\014\263c=\335a@\276y~K\276p\354\264\274\346\006\313=\320\000\215<\352\307-\276\344e0\276\032,\377=.\322\251=\014\315\371\275\025\370\345\275\312\001\367=+\235 \2762)\250=\0165\230\275&0\335\275\364\'H=\206\262\375=\210\037\230\274\352dL\276\000\266\206;\362w\021\276\020\027!\274\225\242J\276\000{0:\2067\227\275\010\206\017\276\374Ex\275\372$\262=\372\014\375=\254j\034=\006\206\257=\376\014J\276\002vO\276\326\351?\276\367\313\014>D\235;=Fv\234\275\340A\013\275\310\231V\276\271\377\005>`T\335<\332h<\276\246\210\275=\366\274\317=\320N(\275\261_Q>\340U=\275\267\206\032>\026\304 \276H\033W\276 \355:\274\377O#>\024\255^=)\237\002>^I=\276 \343\227\2740\243\255\275\240\332\307;\321\311\335\275$\2049=\332\255\364=QDA>b\370\240\275\000(\\;\270\207\240\274\002\273\361=\252q\261=\311\364\033>\211x->\244EL=\022i\277=\301\271S\276Z\030D\276l\177\210\275\"\034\372=\352]\231\275 \204\024\276=\210\005>\271a\356\275\344\355\357=\370\215\033>\215\321N\276\230\274\247\275\006d\333=u.?>\252=\202>\2472\265=\r\231\203\275\374\027*=\370y\r>v\264\376\274e\302N\275\234\255\001>\323\376\252<\2731\355=\266\271\363=/\227\021\276\307\002\255:m\343\366=\220k\256=\037\250\305\275\017\233t>\341\326{>\\S\t\275 m\255\274\243=\027>\271\0212\276\3254\301\275\364\360~=\262\021\233\274lf\022\276\025\227&\276=b#\276\3312\302\275Z\325G>\261\017\350\275\203\224`=\373\340\353=;\352`>^\004\001=q\373\325=\314\'\204=\244G\022>\346\177?\276(\273\225<\215m#>\013Q!>\257\203\243<\370d}>I \255\274\343\206+>\366\234\327=l\255c>\265\342\247=`F\211\276\353\372u>\227\275\361\275:\304\366\274\213F\177\275\262\261\023>\223tB\276\342\301\371\274\277\2146\276g\222\265\275\362\203Q\273v\356\217\275\360\n9\276}S\345=#\236\033\276\262bB\276\255\032\010>\n-\235\274`\263[<\212\0053\275\"\\\331\275\240\353\342\275\366E\225=\\Z\000\275\346\204C>el\035><\210\243\275\341\026%\276\000\027B=YH\033>1\242\002>\017:N<\376N\345=\214}\217\275\350pg\275\365\2375\276\002w\266=-iQ\27670T\276\307Z]>X.\034>\354\203\013=_R/>\306\177\305=i\244\000\275\374~^\275}X&>\'+R\276\232%A=T\006\304\275\304\017\177=\273\253\001>\000\001\307\272\254\344\013>eiJ>\001\227\031>\376\377\302<@\303\367;\234\0165=\220]1\276\263\360\006>S\n\322\275\3044\022\276L\243\023>\231xL\276L\246h=j\337\032>\364\226\006\276\341\320&>\304X:\276\250\210\241\275\276\221\373=8K\006\276\37534\276k\225.>\327\220A>\021\202\014\276\364\t#\274\261D\314\275\217\\\002>nq\344\275\223\257\346\275\2241-\276\327\257\214<\261\213\234<\353\374 \276\033\001&\274\006;\232\275\275|\033>\232c\275=w\370#>\2249;\2768\\\017>\202&`\2752\240\233=}\001\'=\177\021R\276\250&R><;\027=v^\004\276\372\266C\276\323\334\023\276Y\234\272\275\261\260\035>\376\214\376\274\272\356U\276\212\r\266=\306\327\301=YI\361=\004\262<=\t\224\352=\333\366\033>\2704\023>\240\231\265\275B\325\236>\317\353\245\274\310\242\016\276\013\314;\276\343\031\\\276\347\205\316\275\325\361\306:\257l\276<\237\237\310\275\007\327\263\275\302\361\222=\233\255\037>\\X\306=\251\t\334=\241\376\022\276F\234\032>\351*\005\2764\3752>\002h\212=\311\007\037>\225|\306\275#\271s=\010\r\373<\000\312\317\271\316\217\326<\000\003 ;\211u->B\211\343=\245\231\010\276A)\005=\362\347\031\276\247\3246>\224\317\021=^\352\264=4)E\276\371q\376=Xa\001\276\340UX<gS\333\273\332\211)\276-\370U>\356\035\263\275\314\rC\274\350\211o\275\002s\271=\373\0147=\320\031N>yB1\276\362e\267\275`s\236;(~\251<\241\323/\276\\y\000\276G\024#>Js6>l\324H=\317\242[>\315\'\320\273\225@#>\364u#=\010\312\211\274\253\305?>\327]Q\276<8J=x\207\336\274\337S\021>\033b\031>\214\336T=c\211J>\222<\303\275\232\202\304\275~\260\274=D\305N\275\320\313\316\274\352\016\303\275\312f\027\276.\204\332\275\227*#\276\376\336\207\275~ \212\275\037[\013\276\010\356\267\2741\036\021>\252\263\024\276b.\203\275\373v#>B\032\226=\335\315`\276X\'^>\376\264N=\312\232\274=\264\263\352=\024J\261\274\030\342^\275\345U\206\275tl6=\347\201 >\206;/=\230\267^>ED\243\275\r\333\006>\221\275\306\273\203\230\005>\360\235I\276_\337\023\276\322\275\377<jZ\004<S\360\317=\334 \210=j\326\236\275\234\213l>y1@>0\261\037<\214\352\\\275\320\203<\2756\014\222=\273\325s\275\'N\371=\242\223W\276\024\275?\275#zE>c\"\'\276\007\340b>\374n\336\275HZ(>Q5\212=\376R\030>\257\377\023\275\201\030\021\276\252Ei=\224a\204>^R\275=\226\033\271\275L(7\275\221\371=>\333`\267=\222\277\022\276[\220\257\275\026\035\365\275\222DS\276\242\232\000>\252\032\024\276\357\256\006>\305`\234\267\312\201\t\276n\027\372\274\255Za>\301\013h>Y\352K\276\013\217\304\275\345\304[\276\346\205\235\274\020\366Q>5\226X>V\030\274\275C\300~>\266\030\223=\025!G=\030\354\241\275\306\372B<\222U\315=\325\336\331=:O$=\272,E\276A\312D\276\254Q\253\275&\321\037\275KN\010\276\024l\305=\345]\231==\221\020\276\360\342\"\276\324\265O\276\324\264\005\276\274\037\233\275\006\214h>f<\010\2768\315#\275\351\322>\276\001r\314\275B\263\033=>\272U>\225j\'\276\320\273o\275\311\311R\276\3666^>,\307\304:P\375u\275\356\022\260\275\000\0010\276\215\003]=gD\222=6n\026>=H\302=r\367\t>Am\352=\250\317\006=!\253$>\310F\\\276\234\256\205\275#\233@>I\244N\275li\036\275\373\336\000\276\005M4>\360\r\310=-\037\301=\315\017+\276\367+O>1>\330=\354\034\255\275\222\"\255\275\024\261K>%\311*>\200\356\240;JNt>g\2347>\216\270\016\276F\034\317=\rh\313=\273\264\324\273$\t\036>B\360\220\274\0264\351\275P\356\260\274J1<=\303\273\325=\000\317\216=\344\376\265\275\267#&>\364\274\233\275\007\267\257=\016\236n\276\004\347\246\275\340\212%>\020\233c<X^\346=\0178\243\274\325B4>Z\n\240\275d\260\033=hO9\275n\377\213=\253\310\r\274\020\222\">\216Sg>dl\360=\202\255\272=\364E\203\275\255a\275=\022_\302= [\335\273^_\000\275\177\004%=\273\355r>\253\265}>V\247;>\275M\322=\342\030_\276\033L\353\275\372\"\234=Q\020\353\275\021\\A\275\375\250\275<5G*>\017\210\020\275\266\0308\276\214\016+\276U\360p>T\2654\276,\262\003>S\032->\245\2342>7\240E>L\313V\276\200\367\363\275\036E\205=\325>\010>\244\243k\275G\026S=\347\252\026>g:Z>v%\003\276\'\364c\276\321\1774>\373] >\330\366\331\275\204\303\214>\346z\'\276jl\271=\270>\213<\351%\036>\311E&=<3*=\350}n>\304\007k\276\026D\273\275s\222\356\275c\266Z=.\337K=\000\352\203>\363\3769=\377\010\026\275\370+\361\275\243\247Y>`\"]\276\200/Y\274S\300\377\275\340\r\013>\317U~\274\232YS:Nt\301=\350\371\251\275\345\355\205\276+`\032\276Zy\267=\347\315e>b\244i>\242\350\n>j\377A\276iu\001=\227\222u\275\321T\003\276EN\204\275 .\"<\214\316\\=W\002=\276\2666\351=\304\232\347\275\371\024\346=p\'\340\275\242N\257=\t\034\242\275\256\343u>\324-)\276\354\031)\276O\304\000>\340W\211=\032r\336<\361\350r>\276\010\315=\300\277/\276\360\367#\276"
      }
    }
  }
}
node {
  name: "dense_2/bias"
  op: "Const"
  attr {
    key: "dtype"
    value {
      type: DT_FLOAT
    }
  }
  attr {
    key: "value"
    value {
      tensor {
        dtype: DT_FLOAT
        tensor_shape {
          dim {
            size: 64
          }
        }
        tensor_content: "\320\010\014=\236\254,=\270\200\256\273\000\000\000\000\303\253\002=\312xk=y.\362\2745\214r\271\376\242\372<\000\000\000\000\326I\211;m\030\203=\222er\274_\337\251\274^4\250\273#\372;<\271\232d=\365j\036<\0225\2239\01305<\246#\035<:\335\270;\306\357\024\274\365\032\375\273\032Ix=\000\000\000\000\000\000\000\000\000\000\000\000\2424\251\274\336\304\212=y\207I=Y\347\025=\000\000\000\000\000\000\000\000B\312G\274\223j\222=\000\000\000\000\232\267e\271\020\233\234<oY\027=\303\362]=\314\322\245=DL\352<\207\363\306\273\232(\307;\000\000\000\000\000\000\000\000\t2t=\370\205\213=XA\223=\231[\265<\000\000\000\000\000\000\000\000J(\225=\232\364\300\273t\367\247\274\365\254\236=<\235r<D\202\202=\213\212\271\274\035R\206=B\262\316\273\2761\257\273\000\000\000\000"
      }
    }
  }
}
node {
  name: "dense_2/MatMul/ReadVariableOp"
  op: "Identity"
  input: "dense_2/kernel"
  attr {
    key: "T"
    value {
      type: DT_FLOAT
    }
  }
}
node {
  name: "dense_2/MatMul"
  op: "MatMul"
  input: "dense_1/Relu"
  input: "dense_2/MatMul/ReadVariableOp"
  attr {
    key: "T"
    value {
      type: DT_FLOAT
    }
  }
  attr {
    key: "transpose_a"
    value {
      b: false
    }
  }
  attr {
    key: "transpose_b"
    value {
      b: false
    }
  }
}
node {
  name: "dense_2/BiasAdd/ReadVariableOp"
  op: "Identity"
  input: "dense_2/bias"
  attr {
    key: "T"
    value {
      type: DT_FLOAT
    }
  }
}
node {
  name: "dense_2/BiasAdd"
  op: "BiasAdd"
  input: "dense_2/MatMul"
  input: "dense_2/BiasAdd/ReadVariableOp"
  attr {
    key: "T"
    value {
      type: DT_FLOAT
    }
  }
  attr {
    key: "data_format"
    value {
      s: "NHWC"
    }
  }
}
node {
  name: "dense_2/Relu"
  op: "Relu"
  input: "dense_2/BiasAdd"
  attr {
    key: "T"
    value {
      type: DT_FLOAT
    }
  }
}
node {
  name: "dense_3/kernel"
  op: "Const"
  attr {
    key: "dtype"
    value {
      type: DT_FLOAT
    }
  }
  attr {
    key: "value"
    value {
      tensor {
        dtype: DT_FLOAT
        tensor_shape {
          dim {
            size: 64
          }
          dim {
            size: 64
          }
        }
